<unk>	0
<s>	0
</s>	0
の	-3.20482
、	-3.24806
。	-3.76458
が	-4.04771
を	-4.13598
に	-4.25029
は	-4.2964
」	-4.47835
▁	-4.53259
で	-4.53942
「	-4.58334
と	-4.67341
・	-4.72381
も	-5.13209
(	-5.15426
)	-5.21816
な	-5.54919
や	-5.57167
!	-5.57709
から	-5.63276
する	-5.7053
し	-5.7071
した	-5.8025
日	-5.85678
:	-5.87891
る	-5.88092
い	-5.90901
た	-5.93181
か	-5.97648
1	-6.01329
3	-6.01416
2	-6.03632
”	-6.0519
月	-6.05361
という	-6.08424
ス	-6.13855
“	-6.16891
-	-6.20246
年	-6.24536
』	-6.24926
だ	-6.26923
】	-6.30272
?	-6.33107
り	-6.33173
【	-6.33443
/	-6.3468
など	-6.37174
では	-6.38018
、「	-6.38169
S	-6.40331
4	-6.40841
って	-6.42712
して	-6.42861
『	-6.44215
.	-6.44291
て	-6.45141
ー	-6.46286
D	-6.4935
5	-6.51298
"	-6.54871
この	-6.55683
お	-6.5848
▁"	-6.58828
です	-6.59274
く	-6.59762
」「	-6.60327
その	-6.60893
人	-6.66719
■	-6.67671
ない	-6.68358
7	-6.70234
】・	-6.70377
ら	-6.71645
大	-6.72037
には	-6.72462
6	-6.73964
話題	-6.74443
している	-6.7653
でも	-6.78636
一	-6.7908
リ	-6.80469
中	-6.81504
ル	-6.82151
ア	-6.82942
8	-6.84581
ク	-6.85889
10	-6.86154
として	-6.86297
イ	-6.88109
ン	-6.88724
また	-6.89181
す	-6.90988
み	-6.91217
映画	-6.91876
ん	-6.92502
き	-6.95519
日本	-7.01575
i	-7.04465
さ	-7.05396
ト	-7.05491
った	-7.06597
マ	-7.07697
できる	-7.08154
ている	-7.08241
本	-7.08346
う	-7.09012
カ	-7.09742
9	-7.10653
A	-7.13037
ド	-7.13071
ま	-7.13501
ラ	-7.1529
。「	-7.15316
わ	-7.15653
子	-7.15713
分	-7.15765
された	-7.16673
名	-7.17209
〜	-7.18289
G	-7.18353
め	-7.18495
レ	-7.18905
C	-7.19334
こと	-7.21948
つ	-7.22533
。■	-7.22874
I	-7.24767
者	-7.24997
まで	-7.25131
田	-7.25894
円	-7.2609
アプリ	-7.26536
M	-7.27116
ます	-7.275
コ	-7.27667
より	-7.2776
される	-7.28999
ッ	-7.30325
E	-7.30515
20	-7.30572
行	-7.32245
o	-7.32701
ね	-7.33245
T	-7.33486
新	-7.33593
タ	-7.34035
見	-7.34932
出	-7.35528
金	-7.35704
W	-7.35775
第	-7.35924
っ	-7.35989
え	-7.36051
手	-7.36221
同	-7.36558
e	-7.36786
iPhone	-7.37487
s	-7.3865
F	-7.38669
数	-7.38715
さん	-7.38718
だった	-7.38826
チ	-7.38902
よ	-7.39472
前	-7.40085
れ	-7.40112
関連記事	-7.40713
ズ	-7.41238
気	-7.41888
リー	-7.43118
位	-7.43466
上	-7.44379
にも	-7.44556
ウ	-7.44593
約	-7.44615
▁-	-7.44715
戦	-7.45526
a	-7.4554
もの	-7.45586
機能	-7.45823
今	-7.45969
シ	-7.46036
そんな	-7.46447
回	-7.46534
P	-7.46559
あ	-7.46658
B	-7.47095
フ	-7.47926
ロ	-7.48022
女性	-7.48218
用	-7.48295
キ	-7.48408
である	-7.48855
ミ	-7.49506
ム	-7.50512
世界	-7.50704
エ	-7.51014
Android	-7.51132
下	-7.51185
スマートフォン	-7.51185
画面	-7.51478
いた	-7.51504
サービス	-7.51848
ナ	-7.52115
度	-7.52573
目	-7.52744
MAX	-7.52745
がある	-7.52764
時	-7.53251
ある	-7.53266
U	-7.54461
,	-7.54654
&	-7.56099
時間	-7.56232
へ	-7.56425
女子	-7.56586
さらに	-7.56752
いい	-7.56866
っている	-7.56936
高	-7.57086
K	-7.5765
12	-7.5777
生	-7.57889
ご	-7.58148
方	-7.58642
O	-7.58861
体	-7.59447
たい	-7.59886
女	-7.60545
]	-7.61577
こ	-7.61839
国	-7.62219
なら	-7.62376
け	-7.63088
だけ	-7.63655
u	-7.63756
化	-7.6382
11	-7.63983
感	-7.64283
だろう	-7.64474
部	-7.65012
について	-7.65545
写真	-7.65681
」(	-7.66058
作	-7.66352
力	-7.66679
後	-7.66908
ジ	-7.67359
何	-7.68116
になる	-7.68138
オ	-7.68541
公開	-7.68552
されている	-7.68655
!」	-7.68752
男	-7.68875
ニュース	-7.69332
的な	-7.69386
発売	-7.69802
チェック	-7.70053
だが	-7.70137
ば	-7.70221
事	-7.70379
モデル	-7.70397
歳	-7.71062
となる	-7.71127
情報	-7.71147
いる	-7.71636
性	-7.71677
2012	-7.71839
心	-7.72135
L	-7.72283
グ	-7.72364
への	-7.72368
色	-7.72505
美	-7.72575
N	-7.72597
実	-7.72861
)・	-7.73231
ました	-7.73539
そう	-7.74431
0	-7.74461
対応	-7.74797
テ	-7.74973
んだ	-7.75311
30	-7.75336
点	-7.75638
エスマックス	-7.75692
会	-7.75885
愛	-7.76101
長	-7.76175
山	-7.76239
といった	-7.76828
され	-7.77213
内	-7.77225
人気	-7.77343
t	-7.77544
ブ	-7.77681
g	-7.77845
物	-7.78188
話	-7.78198
ファン	-7.78202
初	-7.78739
テレビ	-7.78754
ビ	-7.78766
p	-7.79461
これ	-7.79503
X	-7.79658
サイト	-7.80134
韓国	-7.80343
メ	-7.80509
ツ	-7.80687
?」	-7.81025
サ	-7.81191
n	-7.8168
V	-7.82061
家	-7.8248
元	-7.82599
▁S	-7.82708
版	-7.83167
ガ	-7.83596
R	-7.8379
外	-7.84005
番組	-7.84094
ゲーム	-7.84172
先	-7.84221
ように	-7.84509
H	-7.84727
とは	-7.84781
最	-7.84787
ニ	-7.85942
のか	-7.86807
シリーズ	-7.86821
m	-7.87049
選手	-7.87125
バ	-7.87245
水	-7.87322
ック	-7.87461
すると	-7.87465
られる	-7.87492
カメラ	-7.87519
そして	-7.87602
む	-7.87694
川	-7.87846
入	-7.88258
ず	-7.88622
なかった	-7.88851
不	-7.89287
小	-7.89893
着	-7.9047
×	-7.90737
通	-7.91349
...	-7.91964
せ	-7.92137
万	-7.92491
面	-7.92969
ユーザー	-7.93095
ところ	-7.93243
パ	-7.93252
発	-7.93794
野	-7.9395
Google	-7.94
したい	-7.94083
撮影	-7.94263
作品	-7.94276
ため	-7.9435
ター	-7.94556
日に	-7.94586
y	-7.94673
記事	-7.94724
問題	-7.95108
セ	-7.95196
関連リンク	-7.95459
知	-7.96463
ち	-7.96466
ドコモ	-7.96595
代	-7.9692
プ	-7.97508
結婚	-7.97511
PC	-7.97667
機	-7.97963
場	-7.98002
間	-7.98149
Y	-7.98196
どう	-7.99053
じ	-7.99425
東京	-7.99677
自分の	-7.99808
スマホ	-8.00426
ことを	-8.00804
スト	-8.00958
とか	-8.00966
デ	-8.01224
自分	-8.01626
による	-8.01883
監督	-8.02179
ビデオ	-8.02214
動画	-8.02574
試合	-8.02729
ネ	-8.02989
販売	-8.03147
合	-8.0328
仕事	-8.03291
ボ	-8.03304
となった	-8.03351
します	-8.0361
立	-8.0363
イベント	-8.03795
ような	-8.04352
いて	-8.04583
バー	-8.04922
学	-8.04925
ながら	-8.05029
ぶ	-8.05199
価格	-8.05844
的	-8.05944
J	-8.06713
地	-8.06939
キャンペーン	-8.0728
店	-8.07335
全	-8.0735
結果	-8.07402
15	-8.07512
言	-8.07976
ノ	-8.08081
設定	-8.08549
2011	-8.08769
氏	-8.08844
イン	-8.08886
顔	-8.08901
しかし	-8.09212
ダ	-8.09361
役	-8.09371
社	-8.09451
口	-8.09457
無	-8.09457
50	-8.09772
ハ	-8.09803
ティ	-8.09848
映像	-8.10047
l	-8.10915
b	-8.11032
ていた	-8.11083
内容	-8.11356
それ	-8.1142
25	-8.11821
していた	-8.12206
。【	-8.12308
原	-8.12372
アップ	-8.12419
型	-8.13079
放送	-8.13186
コメント	-8.13209
[	-8.13398
=	-8.13423
ット	-8.13588
▁"【	-8.13598
々	-8.13762
び	-8.14027
モ	-8.14363
木	-8.1437
味	-8.14565
)」	-8.1488
利用	-8.15374
16	-8.15735
提供	-8.15807
れば	-8.15934
ディ	-8.15947
正	-8.16024
!?	-8.16341
d	-8.16451
三	-8.17977
ゴ	-8.18046
になった	-8.18249
られた	-8.18251
光	-8.18375
ほど	-8.18549
売れ筋	-8.18976
定	-8.1901
しています	-8.19126
けど	-8.19164
もう	-8.19592
よう	-8.19673
チーム	-8.19687
ヤ	-8.20487
すること	-8.20919
真	-8.21914
ことが	-8.2214
なく	-8.22211
ロー	-8.22235
成	-8.22397
19	-8.22503
風	-8.22662
的に	-8.22873
かな	-8.23099
13	-8.23298
発言	-8.23389
AKB	-8.23803
ケ	-8.23864
▁on	-8.24112
ページ	-8.24206
次	-8.24285
開始	-8.24294
なんて	-8.24586
▁(	-8.24878
男性	-8.25028
系	-8.25594
場合	-8.2569
ろ	-8.25768
だけで	-8.25898
ですね	-8.25933
んで	-8.25961
発表	-8.25978
身	-8.26056
搭載	-8.26507
食	-8.26922
登場	-8.27051
00	-8.27162
以上	-8.27297
livedoor	-8.27299
使用	-8.27305
18	-8.27312
土	-8.27451
er	-8.27643
台	-8.27714
などの	-8.28013
白	-8.28062
サッカー	-8.28247
になって	-8.28441
メール	-8.28594
しい	-8.28915
によって	-8.29007
れる	-8.29095
jp	-8.29186
現在	-8.2922
%	-8.29538
注目	-8.29654
ワ	-8.29921
賞	-8.30094
w	-8.30292
向け	-8.30326
▁Twitter	-8.305
ど	-8.30574
直	-8.30659
平	-8.30744
Fi	-8.30967
マン	-8.31041
ネット	-8.31243
今回	-8.31349
au	-8.31565
端末	-8.3157
製品	-8.31583
関連情報	-8.31593
ドラマ	-8.31745
笑	-8.31805
c	-8.32203
予定	-8.32259
ぐ	-8.32267
表示	-8.32531
取り	-8.32707
人が	-8.33008
これは	-8.33445
恋愛	-8.33531
動	-8.33576
線	-8.33748
k	-8.33763
>	-8.3386
ピ	-8.34046
40	-8.34553
デザイン	-8.35023
100	-8.35298
達	-8.35311
14	-8.35319
会社	-8.35537
サイズ	-8.36059
品	-8.36174
理由	-8.3619
ポ	-8.36338
クリスマス	-8.36373
新しい	-8.36458
商品	-8.36944
かった	-8.37338
▁|	-8.37565
http	-8.3791
://	-8.37913
カー	-8.37951
人の	-8.38011
ると	-8.38234
人は	-8.38317
前に	-8.38381
出演	-8.3891
気持ち	-8.38974
万円	-8.39045
プレゼント	-8.39127
48	-8.39367
報道	-8.39494
肌	-8.39551
代表	-8.39797
60	-8.40038
プロ	-8.40162
21	-8.40263
相手	-8.40496
アン	-8.40605
24	-8.40789
各	-8.40961
感じ	-8.41433
23	-8.41439
られ	-8.41503
キー	-8.41537
よく	-8.41539
たち	-8.41646
式	-8.41666
所	-8.41822
200	-8.41854
夢	-8.42273
開	-8.42626
こんな	-8.42672
Sports	-8.42857
にて	-8.43096
大きな	-8.43211
ザ	-8.43283
紹介	-8.43459
ブログ	-8.43553
別	-8.43577
夏	-8.43729
通信	-8.43755
井	-8.43901
音	-8.43968
コン	-8.44079
開催	-8.44093
特集	-8.44125
書	-8.44142
データ	-8.44189
特	-8.44209
える	-8.4443
関係	-8.44551
ギ	-8.44675
頭	-8.44992
しない	-8.45024
に対して	-8.4521
f	-8.45237
モバイル	-8.454
.1	-8.45621
ています	-8.45669
シーン	-8.45882
ベ	-8.46441
と思います	-8.46442
なので	-8.46679
、“	-8.46902
割	-8.47019
だから	-8.47027
和	-8.47088
しました	-8.47247
・【	-8.47256
夜	-8.47273
)■	-8.47347
返	-8.47474
smaxjp	-8.47488
記事執筆	-8.47672
Wi	-8.4774
ちょっと	-8.47869
と思う	-8.47917
できない	-8.47961
、『	-8.48004
ソニー	-8.48068
購入	-8.48097
しく	-8.48206
付け	-8.4824
時に	-8.48297
スター	-8.48337
アメリカ	-8.48435
方法	-8.48456
GB	-8.48478
最大	-8.48751
日本の	-8.48795
意	-8.48854
文	-8.48944
期待	-8.49216
明	-8.49367
機種	-8.4944
様	-8.4954
今回の	-8.49545
ではない	-8.4957
入れ	-8.49922
ソ	-8.50751
<	-8.50959
▁Watch	-8.51348
計	-8.51431
春	-8.51543
める	-8.51575
re	-8.51674
熱	-8.5192
▁1	-8.51935
mm	-8.5229
道	-8.52308
iPad	-8.52332
ばかり	-8.52549
操作	-8.52727
残	-8.52757
全国	-8.52802
島	-8.53052
ぎ	-8.53416
解	-8.53439
べ	-8.5351
理	-8.53589
Twitter	-8.53869
超	-8.53875
SALON	-8.53948
勝	-8.54048
恋	-8.54143
友達	-8.54154
ことは	-8.54311
法	-8.54455
com	-8.54508
神	-8.54516
+	-8.54544
どんな	-8.54745
今年	-8.54862
Z	-8.54896
安	-8.55134
画像	-8.55151
自	-8.55187
本当に	-8.55326
主	-8.55343
限定	-8.55374
近	-8.55455
声	-8.55736
流	-8.55878
サン	-8.55957
調査	-8.56173
生活	-8.56276
により	-8.56332
重	-8.56409
ようだ	-8.56422
悪	-8.56547
市	-8.5666
集	-8.56715
放	-8.56787
選	-8.56851
側	-8.56973
半	-8.57236
連	-8.57311
批判	-8.57361
とも	-8.57789
日本代表	-8.57971
登録	-8.58055
産	-8.58123
思い	-8.58239
多	-8.5831
h	-8.58403
王	-8.5842
▁「	-8.58437
ちゃん	-8.58438
ること	-8.58451
たら	-8.58484
好き	-8.58688
アイテム	-8.58691
料理	-8.58708
カード	-8.58786
)"	-8.58794
有	-8.59153
語	-8.59272
""	-8.59288
報	-8.59482
メディア	-8.59508
来	-8.59537
組	-8.59757
使い	-8.59855
量	-8.59893
ヒ	-8.59941
OS	-8.60139
ポイント	-8.60197
2010	-8.60198
そうだ	-8.60277
あり	-8.60331
私	-8.60626
!!	-8.60727
一番	-8.60781
開発	-8.61024
配信	-8.61068
中の	-8.61101
ジャ	-8.6123
無料	-8.61329
親	-8.61456
強	-8.61461
同じ	-8.61533
17	-8.61665
CM	-8.61763
。"	-8.61766
とき	-8.62026
28	-8.62101
試	-8.62118
co	-8.62148
業	-8.62311
なる	-8.62516
ペ	-8.62745
ほか	-8.62773
取	-8.62931
ディスプレイ	-8.63041
昨年	-8.63048
観	-8.63197
ブランド	-8.63284
思	-8.63352
NTT	-8.63739
80	-8.63754
場所	-8.64009
天	-8.64107
r	-8.64255
質	-8.64314
死	-8.64368
期	-8.64718
毎日	-8.6477
朝	-8.64815
もある	-8.64818
企業	-8.64824
時代	-8.64951
おすすめ	-8.6528
・・・	-8.65305
状態	-8.65533
なお	-8.65555
ひ	-8.65648
製	-8.65653
海外	-8.65997
んです	-8.66043
26	-8.66066
27	-8.66178
種類	-8.66179
▁T	-8.66291
マー	-8.66357
まだ	-8.66519
ことで	-8.66603
良い	-8.66619
らない	-8.66791
家族	-8.66863
東	-8.6705
in	-8.67077
があった	-8.6708
部分	-8.67454
になっている	-8.6761
Q	-8.67719
活躍	-8.67812
セット	-8.68075
せる	-8.68076
二	-8.68212
最新	-8.68252
については	-8.68351
▁P	-8.6838
足	-8.68441
当	-8.68695
率	-8.68701
22	-8.68829
器	-8.68923
打	-8.68936
んですけど	-8.68943
でき	-8.68954
ケース	-8.69446
表	-8.69455
において	-8.69473
インチ	-8.69794
ですが	-8.69832
ふ	-8.69892
一部	-8.69911
Windows	-8.69915
シー	-8.70063
未	-8.70129
宮	-8.70145
広	-8.70331
展開	-8.70333
曲	-8.70378
パナソニック	-8.70391
車	-8.70582
ラー	-8.70639
じゃない	-8.70653
低	-8.70675
人間	-8.70717
を見	-8.7079
応募	-8.70843
花	-8.71111
一人	-8.71151
くらい	-8.71229
火	-8.71342
パソコン	-8.71346
Xperia	-8.71354
げ	-8.71497
フェ	-8.71502
ホ	-8.71547
500	-8.71749
メーカー	-8.71818
意味	-8.71851
スポーツ	-8.72052
藤	-8.72248
ニー	-8.72254
しか	-8.72287
−	-8.72379
売	-8.72434
......	-8.72473
転職	-8.72531
ナー	-8.72881
Facebook	-8.72943
もっと	-8.72972
かけ	-8.73003
形	-8.73006
失	-8.73194
スタート	-8.73206
タブレット	-8.73271
トップ	-8.73365
制	-8.73469
様々な	-8.73773
接続	-8.73777
▁3	-8.73791
家電	-8.74065
米	-8.74223
ファ	-8.74258
ダウンロード	-8.74279
すぎる	-8.74366
al	-8.74438
便利	-8.74477
ション	-8.7448
切り	-8.74517
進	-8.74556
させる	-8.74626
ファッション	-8.74771
よりも	-8.74875
歌	-8.74971
石	-8.75007
ラン	-8.75262
日本人	-8.75272
経験	-8.75272
杯	-8.75284
大学	-8.75473
月に	-8.7548
日から	-8.75496
決定	-8.75499
しよう	-8.75699
メンバー	-8.75783
僕	-8.75841
ません	-8.76086
ライ	-8.76322
今回は	-8.7639
編	-8.76427
気になる	-8.76512
ダー	-8.76573
村	-8.76586
▁M	-8.76757
ツイート	-8.76799
調	-8.76898
入り	-8.77062
じゃ	-8.77092
。※	-8.7715
すれば	-8.77204
になり	-8.77257
人生	-8.77409
海	-8.77507
SH	-8.77546
楽しみ	-8.77557
人に	-8.77598
加	-8.77649
伝え	-8.77678
屋	-8.77748
中に	-8.77769
ッド	-8.77786
活動	-8.77824
可能	-8.77888
リスト	-8.78013
引き	-8.78184
こう	-8.78282
言葉	-8.78362
の声	-8.78398
出す	-8.78533
記録	-8.78569
他	-8.78772
のある	-8.78789
なんと	-8.7879
を受け	-8.78799
29	-8.78827
音楽	-8.78857
番	-8.789
▁L	-8.7898
となっている	-8.79032
状況	-8.79092
走	-8.79101
秋	-8.79109
青	-8.79354
電	-8.7936
ただ	-8.7953
を発表	-8.79569
黒	-8.79601
オン	-8.79623
氏は	-8.79635
中国	-8.79674
そ	-8.79752
夫	-8.79864
等	-8.79884
やすい	-8.7989
技術	-8.7989
付	-8.79946
ツイッター	-8.8
にある	-8.80079
国内	-8.80117
フジテレビ	-8.80165
ジェ	-8.80215
っていう	-8.8023
付き	-8.80336
ck	-8.80432
an	-8.80523
」【	-8.80781
ける	-8.80813
球	-8.80814
誰	-8.80959
プレー	-8.81022
パン	-8.81166
女優	-8.81176
▁C	-8.81363
の中で	-8.81468
相	-8.81554
日より	-8.81581
員	-8.81602
つけ	-8.8161
料	-8.8185
食べ	-8.81913
ネット掲示板では	-8.81944
必要	-8.81982
が登場	-8.81991
務	-8.82223
保	-8.82229
ソフトバンク	-8.82519
枚	-8.82531
温	-8.82556
カラー	-8.82691
オー	-8.82767
単	-8.82802
リング	-8.82852
言い	-8.8291
最近	-8.82948
通り	-8.8298
裏	-8.83031
70	-8.83033
株式会社	-8.83077
ルー	-8.83202
変更	-8.836
したり	-8.83716
多くの	-8.8376
コンテンツ	-8.83898
ング	-8.83974
信	-8.84153
▁4	-8.84162
できます	-8.84174
彼	-8.84346
存在	-8.84435
および	-8.8444
サー	-8.84581
交	-8.8467
答え	-8.8469
右	-8.84697
CPU	-8.84723
AQUOS	-8.84724
ジュ	-8.84749
x	-8.84763
※	-8.84797
—	-8.84826
指	-8.84842
満	-8.8493
のだ	-8.85019
ており	-8.85129
姿	-8.85153
持ち	-8.85317
界	-8.85503
さんが	-8.85541
。『	-8.85841
すでに	-8.86021
でしょう	-8.8617
ボール	-8.86203
させ	-8.86237
ではなく	-8.8645
してくれる	-8.86469
効果	-8.86497
簡単に	-8.86509
強い	-8.8652
ール	-8.86563
合わせ	-8.86658
に対し	-8.86683
携帯電話	-8.86685
会場	-8.86691
過去	-8.86925
バッテリー	-8.86937
みんな	-8.86942
▁2012	-8.86985
楽	-8.87334
てしまう	-8.87389
上で	-8.87411
がない	-8.87465
ゆ	-8.87465
断	-8.87476
弾	-8.87502
期間	-8.87516
▁D	-8.87625
いない	-8.87673
対	-8.87674
楽しめる	-8.87698
紙	-8.87708
望	-8.87755
更新	-8.87804
もちろん	-8.87952
公式	-8.87987
命	-8.8801
星	-8.88037
チャー	-8.8807
部屋	-8.88134
本体	-8.88152
パー	-8.88304
号	-8.88331
USB	-8.88395
使える	-8.88469
森	-8.88631
インタビュー	-8.88635
バージョン	-8.88641
参加	-8.88742
素	-8.889
頃	-8.88919
格	-8.88961
アー	-8.88992
IT	-8.89109
しており	-8.89118
急	-8.89203
オリジナル	-8.89219
好きな	-8.89272
異	-8.89445
ざ	-8.89476
空	-8.89596
高い	-8.89706
彼女	-8.89883
増	-8.89975
にとって	-8.90048
演じる	-8.90071
デジ通	-8.90085
谷	-8.90092
or	-8.90209
違う	-8.90393
市場	-8.90428
原因	-8.90667
店舗	-8.90668
専用	-8.90678
アル	-8.90694
考え	-8.90802
だと	-8.90809
やって	-8.90828
幸せ	-8.90938
TBS	-8.90965
県	-8.91252
知っ得	-8.91258
インターネット	-8.91266
アナ	-8.91334
グラ	-8.91385
氏が	-8.91458
やり	-8.91538
個	-8.91553
ジャパン	-8.9156
でした	-8.91566
向	-8.91613
っと	-8.91632
www	-8.91724
ワン	-8.91815
のような	-8.91824
GALAXY	-8.91851
世代	-8.91895
上げ	-8.91933
ライト	-8.91943
とした	-8.91954
デジタル	-8.9209
軽	-8.92112
♪	-8.9214
出し	-8.92279
使	-8.92315
決	-8.92348
ランキング	-8.92421
オープン	-8.92435
▁IS	-8.92483
したこと	-8.92693
論	-8.9272
ストーリー	-8.92735
企画	-8.92739
います	-8.92754
ガー	-8.92856
となり	-8.92888
公式サイト	-8.92903
イメージ	-8.92995
▁PHONE	-8.93039
いく	-8.93228
▁2	-8.93276
投稿	-8.93304
編集	-8.93317
てきた	-8.93395
ップ	-8.93486
アップル	-8.93576
太	-8.93618
ときに	-8.93631
実際に	-8.93682
ができる	-8.93858
ということ	-8.93864
リン	-8.93953
香	-8.94007
影響	-8.94227
一般	-8.94231
その後	-8.94246
送	-8.94294
視	-8.94474
野球	-8.94568
事件	-8.94594
Xi	-8.94862
つの	-8.95035
松	-8.95122
居	-8.95133
キャラクター	-8.95134
極	-8.95135
詳細	-8.95145
DVD	-8.95149
そういう	-8.95176
差	-8.95203
収	-8.95204
子供	-8.95306
限	-8.95416
両	-8.95434
タイプ	-8.95588
出場	-8.95702
初の	-8.95708
体験	-8.96058
Peachy	-8.96066
▁A	-8.9609
なのか	-8.96299
やっぱり	-8.96375
はず	-8.96386
キャ	-8.96423
ch	-8.96444
フル	-8.96474
質問	-8.96479
▁B	-8.96567
が多い	-8.96657
▁F	-8.96691
切	-8.96918
母	-8.96939
反	-8.96949
描	-8.96958
優	-8.97108
減	-8.97217
主演	-8.97255
洗	-8.97283
独女	-8.97305
再	-8.97313
ハン	-8.97371
ください	-8.97379
オススメ	-8.97615
アップデート	-8.97619
自身の	-8.97684
特に	-8.9786
ィ	-8.97955
.3	-8.98121
のように	-8.98163
派	-8.98251
北	-8.98544
アイ	-8.98729
くる	-8.98765
岡	-8.98768
西	-8.98822
起動	-8.98874
君	-8.98881
てる	-8.98908
っていた	-8.99001
千	-8.99198
したら	-8.99225
タイ	-8.99249
きた	-8.99446
世	-8.9945
殺	-8.99478
絶	-8.99482
意識	-8.99506
ていく	-8.99714
男子	-8.99809
激	-8.99823
馬	-8.99826
ゲ	-8.99879
!「	-8.9989
確認	-8.99933
ありません	-9.00033
されて	-9.00073
際	-9.00077
?」「	-9.00137
れた	-9.00191
作り	-9.00271
をする	-9.00402
んですよ	-9.00451
スタイル	-9.00474
...。	-9.00554
それは	-9.00572
31	-9.00582
大会	-9.00602
少し	-9.00622
皆さん	-9.00639
二人	-9.0076
赤	-9.00777
さんは	-9.00779
五輪	-9.00783
充電	-9.0092
選択	-9.01018
契約	-9.01441
つい	-9.01467
起こ	-9.0153
かもしれない	-9.01605
リーグ	-9.0167
液晶	-9.01729
イス	-9.01731
波	-9.01752
対策	-9.01766
年に	-9.01767
最高	-9.01807
シャ	-9.0181
it	-9.02062
アクション	-9.02094
倍	-9.02094
生き	-9.02235
渡	-9.02374
ro	-9.02396
AR	-9.02404
ぞ	-9.02435
対象	-9.02569
検索	-9.02732
肉	-9.02741
横	-9.02751
連続	-9.02774
こちら	-9.02818
を紹介	-9.02895
at	-9.02982
すべて	-9.03082
@	-9.03083
コー	-9.03113
アクセス	-9.03142
チャ	-9.03193
ほ	-9.03229
妻	-9.03371
室	-9.03386
お気に入り	-9.03419
軍	-9.03438
消	-9.03505
メニュー	-9.03508
づ	-9.03579
ing	-9.03606
に対する	-9.03756
ックス	-9.03796
例	-9.04087
あった	-9.04092
日の	-9.04316
結	-9.04338
優勝	-9.04435
あの	-9.04468
リア	-9.04504
掲載	-9.04506
早	-9.04509
によると	-9.04597
ハイ	-9.0462
ュ	-9.04648
▁X	-9.04721
転	-9.04938
さんの	-9.04998
古	-9.05087
▁[	-9.05095
でしょうか	-9.05118
ar	-9.05144
みたい	-9.05154
ここ	-9.05184
TV	-9.05271
読	-9.05294
団	-9.05319
冬	-9.05392
主人公	-9.05415
ビジネス	-9.05423
以降	-9.05423
環境	-9.05425
システム	-9.05426
説明	-9.05436
何か	-9.05493
!【	-9.05529
初めて	-9.05807
▁G	-9.05931
運	-9.06037
速	-9.06066
実は	-9.06068
ri	-9.06069
どこ	-9.06215
だろうか	-9.06217
st	-9.06229
良	-9.06264
お知らせ	-9.06449
新たな	-9.0645
ーン	-9.06469
これまで	-9.0658
はない	-9.06714
そこで	-9.06873
▁N	-9.06968
情報を	-9.07028
破	-9.07105
撮	-9.07109
▁◯	-9.07238
ソン	-9.07253
入力	-9.07489
ために	-9.07495
こそ	-9.07561
難	-9.07766
印象	-9.078
ボディ	-9.07811
女性の	-9.07831
一つ	-9.07874
サイ	-9.07987
ケア	-9.08
?【	-9.08033
あまり	-9.08069
以上の	-9.08075
待	-9.08116
en	-9.08133
特別	-9.0818
見え	-9.08209
配	-9.08376
活用	-9.08437
違い	-9.08445
アイコン	-9.08526
ぜひ	-9.08533
HD	-9.08543
モード	-9.08556
id	-9.08599
電話	-9.08669
』(	-9.08688
里	-9.08855
ことも	-9.08855
ゼロから始めるスマートフォン	-9.08877
予想	-9.08881
孫社長	-9.08881
立ち	-9.08945
などを	-9.08982
様子	-9.09072
に対応	-9.09116
を使って	-9.09268
物語	-9.09275
LAN	-9.09309
1000	-9.09502
丸	-9.09575
なり	-9.09728
負け	-9.09754
展示	-9.09919
館	-9.0992
ことに	-9.0992
成長	-9.10005
が可能	-9.10206
上映	-9.10349
実施	-9.10351
ビー	-9.10431
今まで	-9.10476
たり	-9.10555
かわいい	-9.10684
ON	-9.1069
ブル	-9.10708
れない	-9.10738
ed	-9.10747
ことができる	-9.10897
の新	-9.10974
シーズン	-9.11001
年間	-9.1123
に関する	-9.11355
90	-9.11424
然	-9.11616
Amazon	-9.11718
らしい	-9.11826
種	-9.1194
内で	-9.11954
見る	-9.12124
得	-9.1215
氏の	-9.12333
管理	-9.12417
許	-9.12431
リリース	-9.12438
タッチ	-9.12447
言って	-9.12552
終了	-9.12606
ということだ	-9.12619
込	-9.12628
300	-9.1263
なぜ	-9.12632
多く	-9.12639
受け	-9.12776
が出	-9.12786
暴	-9.1279
節電	-9.12801
現	-9.12804
▁ENTER	-9.12806
程度	-9.12813
持	-9.12986
映	-9.13071
回答	-9.13178
ne	-9.13266
ですよね	-9.13284
ワー	-9.13434
カル	-9.13438
されています	-9.13455
座	-9.13483
駅	-9.13504
ぼ	-9.13509
虎の巻	-9.13535
南	-9.13536
z	-9.13539
タイム	-9.13585
EN	-9.13657
モノ	-9.13682
することで	-9.13682
を開始	-9.13753
要	-9.1379
利	-9.13804
ブラ	-9.13839
局	-9.13845
解説	-9.13871
根	-9.13892
だけでなく	-9.13945
まま	-9.14155
在	-9.14243
義	-9.14247
落ち	-9.14271
を持つ	-9.14278
防水	-9.14295
見て	-9.14419
めた	-9.1442
ドル	-9.14522
関連	-9.1455
on	-9.14589
大阪	-9.14635
NHK	-9.14643
ロン	-9.14664
そうな	-9.1472
そうです	-9.14832
トン	-9.14979
文字	-9.14998
自然	-9.15024
ファイル	-9.15074
無線	-9.1509
並	-9.15126
行動	-9.15148
意見	-9.15171
es	-9.15214
練習	-9.15394
▁H	-9.15481
くて	-9.15529
と思って	-9.15539
歩	-9.15633
住	-9.15685
ント	-9.15736
快	-9.15742
32	-9.15902
民	-9.16063
想	-9.16111
甘	-9.16139
le	-9.16177
再生	-9.16192
●	-9.16451
KDDI	-9.16519
していく	-9.16593
評価	-9.16602
苦	-9.1676
撃	-9.16876
注意	-9.16889
買	-9.1693
▁V	-9.16953
なし	-9.16983
声が	-9.17246
敵	-9.17264
スペシャル	-9.17267
GHz	-9.17275
サポート	-9.17295
最も	-9.17336
を取り	-9.17344
今後	-9.1741
書き	-9.17415
クロ	-9.17461
公開された	-9.1752
好	-9.17525
値	-9.17573
▁4.0	-9.17606
列	-9.17648
澤	-9.17657
応援	-9.17657
一度	-9.17842
ra	-9.1786
すぎ	-9.17925
私は	-9.18017
に出	-9.18021
チョコレート	-9.18052
まる	-9.18092
しながら	-9.18122
込み	-9.18283
のために	-9.18311
ER	-9.1835
あげ	-9.18362
まり	-9.18443
全て	-9.18519
問	-9.18755
ショップ	-9.1876
工	-9.18771
ホワイト	-9.18791
てくれる	-9.18826
における	-9.18974
」、「	-9.18994
休	-9.19004
などで	-9.19111
レビュー	-9.19114
個人	-9.19148
めて	-9.19175
大きく	-9.19243
ひとつ	-9.19325
記	-9.19415
みる	-9.19552
記念	-9.19552
具	-9.19572
AT	-9.19577
1.	-9.19637
ちゃ	-9.19656
ブラック	-9.19664
があり	-9.19775
いつも	-9.19803
守	-9.19882
舞台	-9.19951
にして	-9.20113
かなり	-9.20203
経	-9.20253
押し	-9.20274
称	-9.20367
ゴルフ	-9.20379
スピード	-9.20384
打ち	-9.20414
することができる	-9.20427
言う	-9.20486
関	-9.20527
らず	-9.20607
合う	-9.20636
・『	-9.2067
英	-9.2068
担当	-9.2075
街	-9.20757
反応	-9.20759
級	-9.20765
77	-9.20942
つか	-9.21084
られている	-9.21124
似	-9.21146
成功	-9.21157
いま	-9.21161
他の	-9.2119
ついに	-9.21407
突	-9.21486
娘	-9.21489
客	-9.21516
細	-9.21524
願	-9.2154
...」	-9.21543
板	-9.21546
レポート	-9.21605
嫌	-9.21672
すぐ	-9.21756
術	-9.21863
人気の	-9.21882
あと	-9.21903
陣	-9.21944
へと	-9.2196
最強	-9.22074
総	-9.22198
ネット掲示板で	-9.22199
のだろうか	-9.22207
一方	-9.22235
リアル	-9.22247
プラン	-9.22274
メイク	-9.22319
かり	-9.22375
があります	-9.22381
.2	-9.22483
韓国の	-9.22674
出来	-9.227
今日	-9.2271
vol	-9.22769
完全	-9.22771
過	-9.22902
ic	-9.22912
v	-9.22984
ピー	-9.22994
件	-9.23083
劇	-9.2312
テーマ	-9.23123
福	-9.23128
ホテル	-9.23145
レンズ	-9.23145
目の	-9.23193
ダメ	-9.23273
ジョン	-9.233
-01	-9.23359
だろ	-9.23462
ヘ	-9.23548
ロゴ	-9.23728
セル	-9.2394
きて	-9.23947
治	-9.23954
なかなか	-9.23956
家庭	-9.23966
英語	-9.23984
そこ	-9.24072
まず	-9.24129
が必要	-9.24251
マイ	-9.24252
つき	-9.24318
飲	-9.2435
気が	-9.24353
敗	-9.24373
クリーム	-9.24376
すごい	-9.24392
制作	-9.24452
AC	-9.24541
ジョー	-9.24584
中で	-9.246
若	-9.24691
とても	-9.24701
▁10	-9.24794
ほう	-9.24863
痛	-9.24909
これから	-9.24926
えた	-9.25121
嬉しい	-9.25186
最終	-9.25234
簡単	-9.2524
気分	-9.25245
No	-9.25377
時期	-9.25556
悩み	-9.25564
アカウント	-9.25597
秒	-9.25607
券	-9.2561
俳優	-9.25614
クチコミを見る	-9.25616
レイ	-9.25731
自分が	-9.25758
らせ	-9.25868
年収	-9.25878
本日	-9.25888
以外	-9.2595
ロック	-9.26002
害	-9.26002
写真を	-9.26016
飛び	-9.26053
機器	-9.26059
▁"「	-9.26282
お金	-9.26374
可能性	-9.26399
シャープ	-9.26438
しても	-9.26501
発生	-9.26628
者の	-9.26675
ネタ	-9.26803
自動	-9.26853
たくさん	-9.26855
傷	-9.26855
衝撃	-9.26858
後に	-9.26951
et	-9.26987
ネットユーザー	-9.27008
場合は	-9.27097
OK	-9.27181
武	-9.27243
カテゴリ	-9.27264
席	-9.27265
ティング	-9.27319
レベル	-9.27356
2009	-9.27494
あなたの	-9.27542
飛	-9.27677
越	-9.27678
伝	-9.27889
MOVIE	-9.27898
よね	-9.27935
と思った	-9.28015
動き	-9.28035
可	-9.28103
短	-9.28119
タレント	-9.28124
変	-9.28148
角	-9.28151
続ける	-9.28184
と同じ	-9.28243
かも	-9.28327
いった	-9.28423
条件	-9.28534
沢	-9.28546
グループ	-9.28549
デビュー	-9.28555
あれ	-9.28576
ポスター	-9.28581
ウィ	-9.28585
社会	-9.28751
税込	-9.28873
士	-9.28892
高速	-9.28905
気に	-9.29048
しかも	-9.29151
情	-9.29219
AM	-9.29266
くなる	-9.29313
写	-9.29368
んでいる	-9.29375
▁Store	-9.29411
俺	-9.29427
わない	-9.29552
を行う	-9.29555
話題になっている	-9.29577
流れ	-9.296
られない	-9.29625
いている	-9.29643
ガン	-9.29681
ですよ	-9.29758
遠	-9.29804
プロジェクト	-9.29821
であること	-9.29845
アジア	-9.29853
追	-9.29876
】・【	-9.30082
方が	-9.30115
まとめ	-9.30197
退	-9.30246
非常に	-9.30257
スタッフ	-9.30273
されていた	-9.30305
笑顔	-9.30349
きました	-9.30354
多数	-9.30406
ネットで	-9.30573
多い	-9.3059
闘	-9.30642
材	-9.30651
出会い	-9.30652
証	-9.30682
電子書籍	-9.30712
ラブ	-9.30806
たちの	-9.3086
であり	-9.30866
香り	-9.30971
幅	-9.30992
恋人	-9.3101
採用	-9.31102
かもしれません	-9.31129
電源	-9.31147
年の	-9.31296
......。	-9.31314
▁8	-9.31347
読み	-9.31379
まずは	-9.3139
一緒に	-9.31407
しっかり	-9.31526
プラ	-9.31564
冷	-9.31579
首	-9.31579
レス	-9.31702
美人	-9.31725
ランド	-9.31792
ってる	-9.31864
力を	-9.31924
GA	-9.31955
当選	-9.32016
ソフトウェア更新	-9.32037
アイドル	-9.32041
楽天	-9.32046
ゲスト	-9.32066
欲しい	-9.32219
落	-9.32244
できた	-9.32356
合い	-9.32442
区	-9.32452
ティー	-9.32514
IC	-9.32595
使う	-9.32609
同社	-9.32673
も多い	-9.3281
すごく	-9.32905
出した	-9.32915
アウト	-9.32916
今年の	-9.33087
ザー	-9.3309
能	-9.33117
以下	-9.33123
ても	-9.33146
助	-9.3315
画	-9.33243
35	-9.33299
図	-9.33313
江	-9.33343
獲得	-9.33349
わかる	-9.33408
ad	-9.33496
話を	-9.3352
タン	-9.33557
me	-9.33664
ッシュ	-9.33666
ライブ	-9.33682
スマート	-9.3379
営業	-9.33797
突然	-9.33803
連載	-9.33814
コーナー	-9.33832
変化	-9.33883
不安	-9.34005
それぞれ	-9.34015
ライン	-9.34149
られて	-9.34171
メッセージ	-9.34254
確	-9.34255
るのは	-9.34268
取材	-9.34271
ろう	-9.34291
読む	-9.34297
活	-9.34337
やはり	-9.34359
▁W	-9.34419
替え	-9.34491
上の	-9.34526
友人	-9.34548
ショー	-9.34622
幸	-9.34654
コラボ	-9.34709
飲み	-9.34752
iOS	-9.34889
億	-9.35069
▁5	-9.3512
日本テレビ	-9.35131
II	-9.35151
ドイツ	-9.35155
視聴率	-9.35182
ですか	-9.35249
続き	-9.35331
ho	-9.35375
800	-9.35455
をチェック	-9.35481
を見て	-9.35591
弱	-9.35614
保存	-9.35617
スーパー	-9.35627
押	-9.35721
方は	-9.35751
to	-9.35772
ベル	-9.35791
トリ	-9.3586
を見せ	-9.35907
フリー	-9.36001
社員	-9.36006
、[	-9.3607
わけ	-9.36074
予約	-9.36099
としては	-9.36105
えて	-9.36251
ホーム	-9.36379
巻	-9.36432
彩	-9.36513
-06	-9.36521
Web	-9.36528
ケーキ	-9.36541
すぐに	-9.36543
名前	-9.36573
深	-9.36579
いました	-9.36592
かれ	-9.36632
はもちろん	-9.36701
クラブ	-9.36762
スタン	-9.36925
左	-9.36958
層	-9.36984
頂	-9.36993
季節	-9.36993
ボタン	-9.37038
香川	-9.37048
投げ	-9.37184
te	-9.37197
——。	-9.37281
非	-9.37411
装	-9.37413
純	-9.37414
父	-9.37433
離婚	-9.37439
秘	-9.37448
移籍	-9.37452
寝	-9.37452
ダイエット	-9.37464
シン	-9.37476
つく	-9.37578
日本語	-9.37644
乗	-9.37667
端	-9.37841
とともに	-9.37885
華	-9.37907
ほとんど	-9.37915
勢	-9.37923
表現	-9.3794
が多く	-9.37967
バック	-9.38027
ート	-9.38118
いか	-9.38142
美女	-9.38181
それが	-9.38208
ここで	-9.38223
公	-9.38318
美しい	-9.38513
受賞	-9.38679
ながらも	-9.38808
恵	-9.3884
大人	-9.38872
事故	-9.38884
髪	-9.38884
歯	-9.38888
末	-9.38909
あります	-9.38938
それを	-9.38965
電力	-9.39001
開発者	-9.39036
アプリ名	-9.39045
)〜	-9.39045
mem	-9.39172
なくて	-9.39278
ゼ	-9.39296
子ども	-9.39331
余	-9.39338
ロンドン五輪	-9.39339
自由	-9.39341
胸	-9.39342
母親	-9.39348
脱	-9.39361
たちが	-9.3938
だって	-9.39494
▁公式サイト	-9.39643
事業	-9.39676
事実	-9.39715
終	-9.39772
将来	-9.3982
となっています	-9.39824
健康	-9.3983
Mbps	-9.39832
拡大	-9.39837
新聞	-9.39887
電気	-9.39916
ぬ	-9.40116
田中	-9.40152
目的	-9.40191
させた	-9.40203
食事	-9.40247
もない	-9.40276
感動	-9.40492
あって	-9.40537
抜	-9.40578
を搭載した	-9.40609
のお	-9.40632
なんで	-9.40649
魅力	-9.40667
老	-9.40767
03	-9.40776
かせ	-9.40815
感覚	-9.40831
生まれ	-9.40938
を実施	-9.41204
携帯	-9.41216
地域	-9.41252
ようです	-9.41258
あなた	-9.41272
美容	-9.41311
国際	-9.41311
そのまま	-9.41438
を見る	-9.41443
巨人	-9.41496
ブルー	-9.41523
本作	-9.41632
職	-9.41666
適	-9.41684
を実現	-9.41701
われ	-9.41737
といえば	-9.4175
久	-9.41755
;	-9.41759
仕	-9.41771
自身	-9.41793
置	-9.41805
mi	-9.41821
チャンス	-9.41837
以前	-9.41887
きます	-9.42122
キム	-9.42147
RO	-9.42183
崎	-9.42188
SNS	-9.42201
瞬間	-9.42229
女の子	-9.42244
ていない	-9.4227
のですが	-9.42298
編集部	-9.42322
れて	-9.42368
聞いて	-9.42561
さを	-9.42648
でしょ	-9.42684
ものの	-9.42762
バイ	-9.42769
理解	-9.42777
笑い	-9.42782
彼の	-9.4281
振り	-9.42876
電池	-9.43019
ることができる	-9.43025
独	-9.43094
出て	-9.43147
女性が	-9.43154
辛	-9.43175
過ぎ	-9.43201
脳	-9.43204
帯	-9.43218
登場する	-9.43218
込む	-9.43256
ちゃう	-9.43261
学生	-9.43298
ou	-9.43464
シェ	-9.43536
日まで	-9.43571
筆	-9.43601
旅	-9.43626
薄	-9.43673
ヴィ	-9.43679
→	-9.43686
パス	-9.43714
普及	-9.43723
LTE	-9.43725
のみ	-9.4376
行き	-9.43959
ったり	-9.43979
:1	-9.43982
ツイッターで	-9.43984
ってきた	-9.43995
カバー	-9.4404
からは	-9.44044
内に	-9.44044
順	-9.44111
キーボード	-9.44259
もあり	-9.4449
まれ	-9.44531
帰	-9.44566
ve	-9.44595
大切な	-9.44604
完	-9.4465
引	-9.44661
中でも	-9.44691
ゴール	-9.44695
専門	-9.44701
怪	-9.44705
指摘	-9.44712
コンパクト	-9.44714
価格は	-9.44742
センター	-9.44746
おり	-9.44817
無い	-9.44839
折	-9.44994
ST	-9.45021
is	-9.45063
演	-9.4512
彼ら	-9.45133
行われた	-9.45146
血	-9.45184
やすく	-9.45194
まさに	-9.45221
ダイ	-9.45269
▁LTE	-9.4531
額	-9.45313
だけに	-9.45353
人も	-9.4536
だな	-9.45395
現実	-9.45412
行く	-9.45445
ペン	-9.45519
モン	-9.45567
権	-9.45656
略	-9.45658
処	-9.45697
ソフト	-9.4571
改善	-9.45716
恐怖	-9.45723
難しい	-9.45732
*	-9.45737
年齢	-9.45777
チェ	-9.45856
400	-9.46017
泣	-9.462
路	-9.46222
待ち	-9.4626
だという	-9.46272
IN	-9.46328
してる	-9.4637
ずに	-9.46377
バス	-9.46415
しまう	-9.46598
ミス	-9.466
を感じ	-9.46687
けれど	-9.46699
圧	-9.4673
堂	-9.46734
Excel	-9.46742
EX	-9.46745
明かし	-9.46749
であれば	-9.46762
歳の	-9.46775
してきた	-9.46947
切れ	-9.46997
関係者	-9.47042
考える	-9.47182
が決定	-9.47217
その他	-9.4723
奥	-9.47235
ソフトウェア	-9.47235
広告	-9.47235
積	-9.47236
興味	-9.47258
カン	-9.47264
業界	-9.47266
開幕	-9.47274
-1	-9.47287
位置	-9.47295
IS	-9.47303
してしまう	-9.47367
電子	-9.47388
日間	-9.47481
をクリックする	-9.47481
もあった	-9.47485
するなど	-9.47513
01	-9.47583
立て	-9.47651
共有	-9.47751
どちら	-9.47761
雑誌	-9.47761
mAh	-9.47773
自殺	-9.47808
認	-9.47875
』『	-9.47877
▁Play	-9.47901
全体	-9.47954
とのこと	-9.47961
ニア	-9.48015
ボー	-9.48025
追加	-9.48042
ひと	-9.48079
みたいな	-9.48083
36	-9.48087
▁SH	-9.4809
ユ	-9.48099
をはじめ	-9.48136
1.5	-9.48228
施	-9.48232
薬	-9.48256
ツール	-9.4835
くり	-9.48422
決め	-9.48434
▁SC	-9.48471
ベスト	-9.48575
誕生	-9.48593
振	-9.48626
させて	-9.48663
ドア	-9.48666
ッと	-9.48669
TO	-9.48769
研究	-9.48773
希望	-9.48793
いよいよ	-9.48798
アニメ	-9.48815
厳しい	-9.48828
交際	-9.48834
いつ	-9.48871
▁Z	-9.48963
今の	-9.49061
てくる	-9.49096
自ら	-9.49118
玉	-9.49329
被害	-9.4933
起	-9.49439
安心	-9.49448
EL	-9.49461
ことから	-9.49518
本当	-9.49606
ステ	-9.49657
内の	-9.49681
を発売	-9.49707
志	-9.49848
服	-9.49857
麻	-9.49863
自信	-9.49888
止め	-9.49962
同時に	-9.49998
人も多い	-9.50017
会話	-9.50036
を中心に	-9.50167
奈	-9.50285
ヨ	-9.50297
アンケート	-9.5035
′′	-9.50378
、2012	-9.50396
楽しい	-9.50426
は何	-9.50486
利用できる	-9.50527
なんだ	-9.50533
容量	-9.50797
談	-9.50874
てしまった	-9.50892
曜	-9.50918
測定	-9.50941
-05	-9.51016
料金	-9.51053
するのは	-9.5107
備	-9.51124
。——	-9.51176
までの	-9.51288
▁7	-9.51319
基本	-9.51395
の上	-9.51403
症	-9.51413
階	-9.51428
城	-9.51445
博	-9.51451
ネットワーク	-9.51457
報告	-9.51459
全く	-9.51492
ドライブ	-9.51547
能力	-9.51592
.4	-9.51594
記者	-9.51603
離れ	-9.51628
ピンク	-9.51691
バッ	-9.51829
接	-9.5191
仲	-9.51928
見える	-9.51948
除	-9.51957
というもの	-9.51968
用の	-9.51972
解禁	-9.51982
補	-9.51986
Ultrabook	-9.51997
心配	-9.52052
LED	-9.52055
続け	-9.52149
ブリ	-9.52177
去	-9.52227
備え	-9.52279
ミニ	-9.52395
フォー	-9.52463
散	-9.52514
樹	-9.52525
誘	-9.52532
detail	-9.52533
Mac	-9.52534
特典	-9.52535
耳	-9.52535
快適	-9.52538
プロ野球	-9.52552
少	-9.526
イー	-9.52601
モテ	-9.52767
トル	-9.52799
el	-9.52829
していない	-9.52844
若い	-9.52874
フレ	-9.5297
かれる	-9.53025
見せ	-9.53044
育	-9.53052
ムービー	-9.53057
刻	-9.53058
|	-9.53091
フランス	-9.53094
パワー	-9.53151
登場した	-9.53172
日本で	-9.53181
の世界	-9.53194
使い方	-9.53204
販売元	-9.5326
一方で	-9.53262
を行った	-9.53348
マンガ	-9.53359
ir	-9.53448
挑戦	-9.53476
婚	-9.53572
普段	-9.53604
ワンセグ	-9.53624
☆	-9.53628
に対応した	-9.53695
売り	-9.53862
するという	-9.53933
支	-9.54014
彼氏	-9.54052
ベース	-9.54084
片	-9.54146
エピソード	-9.54164
洋	-9.54168
横浜	-9.54182
に向けて	-9.54187
)【	-9.54398
▁R	-9.54412
常に	-9.54458
男女	-9.54479
教	-9.54494
共	-9.54517
演出	-9.54542
am	-9.54581
戸	-9.54702
学校	-9.54715
実際	-9.54718
を発表した	-9.54719
月号	-9.54736
満足	-9.54736
通常	-9.54745
もし	-9.54748
本作の	-9.54763
中には	-9.54778
充実	-9.54858
RE	-9.54903
クール	-9.54938
ICS	-9.54939
投	-9.54941
マーク	-9.54978
を求め	-9.55078
早く	-9.55116
▁O	-9.5516
時の	-9.55169
迫	-9.55182
応	-9.55199
プレミア	-9.55222
柄	-9.55244
lo	-9.55278
創	-9.55278
鉄	-9.55279
万画素	-9.55282
スペック	-9.55282
エリア	-9.55359
。●	-9.55373
▁【	-9.55379
前の	-9.55384
場面	-9.55428
の魅力	-9.55502
それでも	-9.55581
ずっと	-9.55597
まった	-9.55683
費	-9.55721
なんか	-9.55797
提	-9.55809
喜	-9.55821
建	-9.55822
雰囲気	-9.55822
改	-9.55822
以来	-9.55834
▁for	-9.55845
友	-9.55851
ジャー	-9.55866
迎え	-9.55877
周り	-9.55884
アプリを	-9.5595
覚	-9.56
メイン	-9.56012
驚	-9.56043
ものだ	-9.56063
ったら	-9.56068
忘れ	-9.56134
だけど	-9.5614
子さん	-9.56177
なのだ	-9.56181
なか	-9.56195
をして	-9.56205
つつ	-9.56213
ストア	-9.56272
時は	-9.56294
坂	-9.56313
というのは	-9.56314
っちゃ	-9.5633
2.	-9.56346
手に	-9.56372
に関して	-9.56383
○	-9.56384
募集	-9.56393
突破	-9.564
逮捕	-9.56418
未来	-9.56435
900	-9.56503
カフェ	-9.56569
買い	-9.56687
なくても	-9.56688
込んで	-9.56704
見られた	-9.56716
追い	-9.56849
日放送	-9.56887
▁Android	-9.56907
景	-9.56931
支援	-9.56952
疲れ	-9.5696
町	-9.56969
んだよ	-9.56971
複数	-9.56972
目標	-9.56982
せず	-9.57022
セン	-9.57081
原発	-9.57107
社長	-9.57151
ましょう	-9.57255
th	-9.57337
最後に	-9.5735
としても	-9.57389
示	-9.57389
防	-9.57475
エア	-9.57538
センサー	-9.57544
危	-9.57612
実現	-9.57633
日には	-9.57706
驚き	-9.57767
大変	-9.57779
挙	-9.57831
75	-9.57845
以下の	-9.57858
カット	-9.57884
万人	-9.57963
ジョ	-9.58011
呼	-9.58068
技	-9.58073
商	-9.5808
ID	-9.58131
ヶ月	-9.58157
はどう	-9.58161
旅行	-9.58177
▁SO	-9.58201
▁E	-9.58224
キャラ	-9.58242
されます	-9.58266
をしている	-9.5834
▁/	-9.58479
容	-9.58552
相談	-9.58561
っています	-9.58587
を開催	-9.58632
欲	-9.58635
ディズニー	-9.58649
手軽に	-9.58655
絵	-9.58656
骨	-9.58666
震災	-9.58667
ということで	-9.5867
謎	-9.58673
銀座	-9.58684
眠	-9.58692
をタップ	-9.58696
as	-9.58719
用意	-9.5878
.5	-9.58804
3.	-9.58822
向上	-9.5885
方に	-9.58884
続	-9.59023
一体	-9.59067
思う	-9.59097
週	-9.59101
絶対	-9.59103
彼女の	-9.59118
清	-9.59207
新発売	-9.59216
乾	-9.59237
腕	-9.59258
劇場	-9.59273
——	-9.59281
ゃ	-9.59324
とする	-9.59355
cm	-9.59363
入った	-9.5937
さま	-9.59412
HP	-9.59483
を持って	-9.59508
ma	-9.59608
なのに	-9.59679
を採用	-9.59701
スポット	-9.59837
移動	-9.59839
ポート	-9.59844
絶賛	-9.59844
厚	-9.59852
米国	-9.59887
バン	-9.59895
▁HD	-9.59936
便利な	-9.5995
キャン	-9.59981
えない	-9.6004
の人気	-9.60057
するため	-9.60095
ce	-9.60148
酒	-9.6016
続く	-9.60217
相手に	-9.60282
ポー	-9.60286
アリ	-9.60295
漫画	-9.60352
果	-9.60381
ドレス	-9.60389
▁Phone	-9.60427
仕様	-9.60442
ペット	-9.60474
同士	-9.60508
凄い	-9.60556
任	-9.60659
向けの	-9.60666
PS	-9.6068
今月	-9.607
トー	-9.60705
可能な	-9.60705
覚え	-9.60709
大切	-9.60768
怒	-9.60832
師	-9.60953
怒り	-9.61003
◆	-9.61009
歴史	-9.61013
ファー	-9.61141
エン	-9.61159
ネット掲示板	-9.6118
たくない	-9.61234
ことができます	-9.61258
ッカー	-9.61259
ter	-9.61283
でもある	-9.61328
▁r	-9.61361
が公開	-9.61368
人と	-9.6143
本人	-9.6147
日常	-9.61511
08	-9.61524
十	-9.61525
現在の	-9.61578
ダルビッシュ	-9.61579
倉	-9.61583
飾	-9.61584
栄	-9.61588
模様	-9.61592
運命	-9.61594
告白	-9.61598
ステージ	-9.61601
^	-9.61607
一覧	-9.61635
ってくる	-9.61678
必要な	-9.61771
原作	-9.61779
になりました	-9.61819
変え	-9.61918
近い	-9.61953
どの	-9.62033
を得	-9.62033
私の	-9.62157
ノート	-9.62162
解像度	-9.62175
連絡	-9.62182
貰	-9.622
ノー	-9.62371
位に	-9.62561
週間	-9.62757
j	-9.62757
静	-9.62776
もいい	-9.62778
推	-9.62798
疑	-9.62804
卒業	-9.62805
大容量バッテリー	-9.6281
有効	-9.62813
見た	-9.62878
億円	-9.62883
比べ	-9.62885
監督の	-9.62922
and	-9.62928
のだが	-9.62937
かわ	-9.63103
を与え	-9.63115
なければ	-9.63126
だよ	-9.63146
りたい	-9.63284
レッド	-9.63346
荒	-9.63386
周囲	-9.6339
平均	-9.63401
当時	-9.63404
Optimus	-9.63405
殺到	-9.63409
バッグ	-9.63457
球団	-9.63531
ローラ	-9.63548
エル	-9.63605
と語る	-9.63607
】・「	-9.6362
も多く	-9.63697
本田	-9.63707
を披露	-9.63779
後の	-9.63927
騒動	-9.64003
計算	-9.64003
昔	-9.64004
書き込み	-9.64035
進化	-9.64115
音声	-9.64158
キング	-9.64161
小型	-9.64171
同様	-9.64184
ナビ	-9.64191
ょ	-9.64204
の大	-9.64216
考えて	-9.64412
戦い	-9.64483
賛	-9.6458
迷	-9.64585
US	-9.6459
例えば	-9.64593
ブルーレイ	-9.64621
WiMAX	-9.64647
部門	-9.64649
映画化	-9.64719
本作は	-9.64739
少年	-9.64874
ion	-9.64909
を作る	-9.64969
ミー	-9.64986
nd	-9.65015
求め	-9.65187
草	-9.65222
引退	-9.65224
アーティスト	-9.65228
訊	-9.65238
十分	-9.653
de	-9.65384
にとっては	-9.65547
人を	-9.65559
大人の	-9.65791
インストール	-9.65835
予告編	-9.65854
▁U	-9.65862
信じ	-9.65911
TOP	-9.65942
いても	-9.66026
高校	-9.66074
スタ	-9.66084
ガール	-9.66092
を考え	-9.66136
600	-9.66236
が増え	-9.66279
(1	-9.66298
してくれ	-9.66303
はこちら	-9.66363
史	-9.66388
ただし	-9.66389
竹	-9.66419
院	-9.66426
先日	-9.66439
距離	-9.66441
郎	-9.66443
イギリス	-9.66447
れている	-9.6645
幕	-9.66451
比較	-9.66454
豪華	-9.66462
オンライン	-9.66463
タイトル	-9.66468
也	-9.66471
当然	-9.66477
提案	-9.66482
勝利	-9.66513
ES	-9.66535
キレイ	-9.66546
トレ	-9.66557
教育	-9.6657
シュ	-9.66585
メモリー	-9.66587
IP	-9.66602
呼び	-9.66645
ぶり	-9.66711
いたします	-9.66745
PR	-9.66807
RA	-9.66827
後半	-9.66846
になります	-9.66961
.9	-9.66988
にする	-9.66995
誌	-9.67018
園	-9.67034
稼	-9.67054
悲	-9.6708
有名	-9.67084
'	-9.67093
キヤノン	-9.67097
CO	-9.671
パフォーマンス	-9.67114
ヘッド	-9.67145
強く	-9.67146
を挙げ	-9.67236
来年	-9.67302
監督は	-9.67364
るので	-9.67553
ss	-9.67555
ka	-9.67582
キャリア	-9.67699
ケータイ	-9.67705
アスリート	-9.67708
至	-9.67712
ちなみに	-9.67714
インテル	-9.67717
コミック	-9.67722
涙	-9.67722
play	-9.67723
MEDIAS	-9.67727
新宿	-9.6776
女性に	-9.67768
ゲット	-9.67777
ワイン	-9.67849
掛け	-9.67868
紹介した	-9.67915
キン	-9.67938
限り	-9.68235
橋	-9.68315
染	-9.68316
GSM	-9.68359
韓流	-9.68376
かい	-9.68381
決勝	-9.68401
間違い	-9.68422
自分で	-9.68551
であった	-9.686
由	-9.68913
吉	-9.68915
がいる	-9.6894
可愛い	-9.68975
プレイ	-9.68975
かどうか	-9.68979
交換	-9.68981
皮	-9.68982
酸	-9.68987
暗	-9.68989
Bluetooth	-9.6899
ARROWS	-9.68995
KI	-9.69001
ブレ	-9.69003
さんに	-9.69052
男性が	-9.69069
無理	-9.69102
良く	-9.69168
のこと	-9.69296
AS	-9.69321
機能を	-9.6934
ことがある	-9.69415
ol	-9.69576
演技	-9.69606
SP	-9.69619
に注目	-9.69629
主題歌	-9.69633
の間で	-9.69647
こういう	-9.69655
日々	-9.69723
トーク	-9.69749
デート	-9.69797
盛り	-9.69814
京	-9.69855
第一	-9.69859
やる	-9.69889
ドット	-9.70024
なん	-9.70092
AN	-9.70103
リップ	-9.70146
を使う	-9.70203
背	-9.70207
矢	-9.70229
mo	-9.70238
さまざまな	-9.70239
先行	-9.7026
背景	-9.70275
概要	-9.70276
ハリウッド	-9.70278
700	-9.7028
導入	-9.70296
予告映像	-9.70306
ビル	-9.70322
次の	-9.70328
よい	-9.7039
うち	-9.70468
すべき	-9.70492
に加え	-9.70538
それぞれの	-9.70585
▁J	-9.70638
逆	-9.70785
元気	-9.70791
議	-9.70799
程	-9.70836
OR	-9.70874
を務める	-9.7092
毛	-9.70922
所属	-9.7094
メント	-9.70989
松井	-9.70997
心を	-9.71099
上に	-9.71254
最新作	-9.71281
ET	-9.71289
協	-9.7138
!■	-9.71515
弁	-9.71564
LINE	-9.71565
グッズ	-9.71568
おサイフケータイ	-9.71581
秘密	-9.71582
大丈夫	-9.71585
ベルセルク	-9.71585
SoftBank	-9.71588
なでしこジャパン	-9.71593
べき	-9.71633
解決	-9.7174
スパイ	-9.71748
出る	-9.71782
レース	-9.71801
からも	-9.71833
かない	-9.71892
ナル	-9.71896
の高い	-9.71903
をお	-9.71908
の記事をもっと	-9.71971
発表された	-9.72033
明らかに	-9.72087
済	-9.7213
争	-9.72168
検	-9.72197
を搭載し	-9.72218
コンセプト	-9.72223
全国ロードショー	-9.72233
うまく	-9.72235
非難	-9.72247
祝	-9.72255
ベン	-9.72274
いや	-9.72292
をした	-9.72299
シャツ	-9.72309
わからない	-9.7231
視聴者	-9.72335
ドラ	-9.72359
のコメント	-9.72472
エイ	-9.72478
次第	-9.72497
ディー	-9.72542
基	-9.72724
校	-9.72833
高級	-9.72872
縮	-9.7288
フラ	-9.72882
ヌ	-9.72882
コミュニケーション	-9.72882
嶋	-9.7291
大型	-9.72944
地球	-9.72952
いう	-9.72953
動作	-9.72954
時間を	-9.73056
に挑戦	-9.73147
CE	-9.73218
思って	-9.73327
トラ	-9.73338
デー	-9.73414
規	-9.73437
なでしこ	-9.73543
アベンジャーズ	-9.73548
鳥	-9.73564
支持	-9.73565
四	-9.73576
謝罪	-9.73576
これで	-9.73592
変わって	-9.73613
表示される	-9.73619
的には	-9.73629
指定	-9.73637
てくれた	-9.73644
HT	-9.73833
ピン	-9.73835
オフ	-9.73921
コード	-9.7393
プリ	-9.73939
バレ	-9.74067
カラ	-9.74068
クラ	-9.74076
仮	-9.7415
アドバイス	-9.74211
比	-9.74212
北朝鮮	-9.74215
150	-9.74218
ay	-9.74219
刊	-9.7422
損	-9.74221
官	-9.74225
掃除	-9.74231
名様にプレゼント	-9.74236
介	-9.74238
収録	-9.74241
残念	-9.74249
内蔵	-9.74249
課	-9.74251
モー	-9.74256
多かった	-9.74297
若手	-9.74369
AL	-9.74376
となります	-9.74386
身体	-9.74425
使え	-9.7445
くれ	-9.74544
んだろう	-9.74603
悪い	-9.74605
探	-9.74768
sh	-9.74835
科	-9.74849
してみよう	-9.74876
爆	-9.74877
存	-9.74878
策	-9.74885
宇宙	-9.74895
理想	-9.74917
受信	-9.74919
革	-9.74929
ソフトバンクモバイル	-9.74972
コピー	-9.74972
されること	-9.75116
ぜ	-9.75144
都	-9.75156
わかり	-9.75229
記事を	-9.75331
と話し	-9.75343
茶	-9.7536
新規	-9.75465
目に	-9.75522
麗	-9.75576
射	-9.75582
チケット	-9.756
完成	-9.75601
素材	-9.75625
発売開始	-9.75639
▁iPhone	-9.75646
ホール	-9.75672
選び	-9.75687
くなり	-9.75803
テン	-9.75818
名様	-9.75869
会議	-9.76016
ニュー	-9.76018
エコ	-9.76065
少ない	-9.76186
夫婦	-9.7626
スクリーン	-9.76274
規模	-9.76278
を使った	-9.76285
バランス	-9.76293
婚活	-9.76297
ストレス	-9.76308
プレミアム	-9.76334
仲間	-9.76336
浮気	-9.76338
ワザ	-9.76378
リーダー	-9.76408
文化	-9.76451
時計	-9.76453
レンジ	-9.76457
声も	-9.76483
発表会	-9.76512
コース	-9.76528
聞いた	-9.76695
×1	-9.76769
最大の	-9.7679
後は	-9.76793
とはいえ	-9.76872
▁Wi	-9.76896
頼	-9.76929
レーション	-9.76955
修正	-9.76982
辛口	-9.77014
HTC	-9.77053
つまり	-9.77104
ことができ	-9.7712
万台	-9.77139
ってしまう	-9.77187
と題し	-9.77231
全世界	-9.77246
デイ	-9.77286
負	-9.77289
が高い	-9.77391
こうした	-9.77445
だったら	-9.77456
抑え	-9.77478
説	-9.77558
の様子	-9.77562
勤	-9.77599
タブ	-9.77606
載	-9.77615
知識	-9.7762
困	-9.7763
消費	-9.77651
週刊アサヒ芸能	-9.77652
乱	-9.77659
ジョブズ	-9.77671
亜	-9.77674
★	-9.77676
桜	-9.77713
英国	-9.77739
夏の	-9.77827
向き	-9.77873
総合	-9.77881
抱	-9.77941
ウェイ	-9.77945
通話	-9.77991
されており	-9.78026
ニング	-9.78136
を確認	-9.78137
認め	-9.78169
コア	-9.78224
だし	-9.78228
MA	-9.78303
念	-9.78326
分け	-9.78333
閲覧	-9.78342
留	-9.78343
さっそく	-9.78346
設置	-9.7835
_	-9.78361
研究所	-9.78365
▁by	-9.78371
大手	-9.78388
ホームページ	-9.78409
今年は	-9.78428
次世代	-9.78431
なって	-9.78446
中継	-9.78461
芸能人	-9.78462
を集め	-9.78511
ります	-9.78689
逃	-9.78719
選手が	-9.78735
現在は	-9.78819
34	-9.78862
司	-9.78906
仕事を	-9.78948
寄せられている	-9.79014
倒	-9.7902
健	-9.79035
統	-9.79043
ソー	-9.79047
項目	-9.79054
運転	-9.79065
共演	-9.79067
労	-9.79074
ディング	-9.79126
メジャー	-9.79129
異なる	-9.79133
空間	-9.79154
の方が	-9.79156
かける	-9.79173
ャ	-9.7927
を行い	-9.79272
li	-9.79422
家の	-9.79459
人物	-9.79589
!」「	-9.79601
注	-9.79624
案	-9.79697
メダル	-9.79732
救	-9.79751
type	-9.79752
OL	-9.7976
評	-9.79762
布	-9.79768
スタジオ	-9.79771
壁	-9.79771
岩	-9.79774
現状	-9.79777
野菜	-9.79777
警	-9.79779
袋	-9.79781
ございます	-9.79781
と言える	-9.79784
開発コード	-9.79801
るため	-9.79818
イラスト	-9.79826
セックス	-9.79854
みて	-9.79902
製作	-9.79926
ビューティ	-9.79933
さえ	-9.79999
以上に	-9.8002
来た	-9.80053
回線	-9.80075
同時	-9.80168
監督が	-9.80222
僕は	-9.80355
求人	-9.80444
フォン	-9.80471
ヒーロー	-9.80483
精神	-9.80501
再び	-9.80549
会員	-9.80587
楽しく	-9.80622
っぱ	-9.80622
高く	-9.80633
の名前	-9.80696
クル	-9.80757
プラス	-9.80834
上がる	-9.8086
日本に	-9.81036
行われる	-9.81097
展	-9.81117
導	-9.81141
段	-9.81176
どんどん	-9.81185
クリ	-9.81188
イタリア	-9.81191
55	-9.81205
姉妹	-9.81205
赤外線	-9.8121
つぶやき	-9.81213
けば	-9.81213
ブーム	-9.81217
計画	-9.81222
制限	-9.81229
ケン	-9.8123
観客	-9.81236
となって	-9.81264
国民	-9.81293
のうち	-9.813
当たり前	-9.81319
お店	-9.81361
ようになった	-9.81384
常	-9.81463
意見も	-9.81562
過ごし	-9.81589
性能	-9.81682
先週	-9.81843
▁約	-9.81869
HDD	-9.81877
厳	-9.81878
64	-9.81889
勢い	-9.81891
躍	-9.81913
お客様	-9.81915
範囲	-9.81926
欠	-9.81928
握	-9.8194
表情	-9.81954
無料カテゴリ	-9.81967
事態	-9.81971
行為	-9.82015
遊	-9.82029
RAM	-9.82103
代の	-9.82126
とコメント	-9.82185
なくなる	-9.82214
人たち	-9.82229
ta	-9.82254
のための	-9.82352
ダン	-9.82495
芸人	-9.82545
クリック	-9.82568
シア	-9.82577
us	-9.82606
剤	-9.8263
滅	-9.82654
準備	-9.82659
のではないだろうか	-9.82671
直接	-9.82682
の中から	-9.82746
人々	-9.82765
いません	-9.82807
寄せ	-9.82851
披露	-9.82939
くなった	-9.82941
まらない	-9.82942
当て	-9.83029
FC	-9.83174
が一番	-9.83188
想い	-9.83193
んだけど	-9.83207
作成	-9.83211
際に	-9.8322
だったが	-9.83221
受	-9.83269
精	-9.8332
ともに	-9.83328
舞	-9.83356
便	-9.83363
肩	-9.8337
噂	-9.83387
豪	-9.83388
是非	-9.83391
トラブル	-9.83401
▁Sandwich	-9.83404
こだわり	-9.83407
オリンピック	-9.83416
キャスト	-9.83454
カップ	-9.83494
選手の	-9.83526
男性の	-9.8355
けない	-9.83556
増える	-9.83617
クロック	-9.8366
意見が	-9.83682
タル	-9.83743
成分	-9.83798
発見	-9.83823
を探	-9.83906
に出演	-9.83957
チュ	-9.83982
レット	-9.84076
習	-9.84084
永	-9.84114
組み合わせ	-9.84122
ヒロイン	-9.84124
省	-9.84127
貴	-9.84132
の特徴	-9.84138
斎藤	-9.8414
スイーツ	-9.84146
われる	-9.84201
全然	-9.84209
サロン	-9.84218
これが	-9.8424
.8	-9.84284
op	-9.84298
vi	-9.84306
オリ	-9.84307
ありました	-9.84374
▁『	-9.84482
マルチ	-9.84524
かつて	-9.84575
トライ	-9.84636
としている	-9.84754
寄せられた	-9.84796
時間が	-9.84796
族	-9.8481
ジー	-9.8481
構	-9.84823
寺	-9.84845
聴	-9.84856
雪	-9.84865
雑	-9.84866
診断	-9.84872
変わる	-9.84879
酷	-9.84883
ほぼ	-9.84885
調整	-9.84886
宣言	-9.84886
プロジェクター	-9.84887
州	-9.84889
削除	-9.84889
少なく	-9.84895
太郎	-9.84898
構成	-9.84906
パリ	-9.84932
バージョンアップ	-9.84965
ウェア	-9.84971
全米	-9.84976
安全	-9.84979
安定	-9.84991
コーチ	-9.85005
ぁ	-9.85015
選んだ	-9.85016
発売予定	-9.85088
を引き	-9.85197
なのです	-9.85223
に行く	-9.85267
抱え	-9.85313
オール	-9.85314
大人気	-9.85464
になると	-9.85468
流行	-9.85533
自分に	-9.85548
んじゃないか	-9.85565
などと	-9.85594
隊	-9.85608
眼	-9.85619
ケーブル	-9.85629
鑑賞	-9.85637
録画	-9.85638
孫正義	-9.8564
想像	-9.85642
iPod	-9.85646
手に入れ	-9.85655
社会人	-9.85673
共通	-9.85692
独身	-9.85707
作業	-9.85785
自体	-9.85816
まあ	-9.85833
ホン	-9.85844
!』	-9.85851
全部	-9.85912
ローズ	-9.86057
近く	-9.8611
を決め	-9.86285
資	-9.86329
レシピ	-9.86352
希	-9.86357
いただけ	-9.86363
査	-9.86373
):	-9.86374
政	-9.86377
google	-9.86388
したもの	-9.8639
警察	-9.864
感謝	-9.86405
復帰	-9.86431
処理	-9.8644
速報	-9.86442
感想	-9.86488
かかる	-9.86578
CD	-9.86615
込んだ	-9.86624
さが	-9.86666
張	-9.86688
聞	-9.86693
焼	-9.86765
ブック	-9.8683
大ヒット	-9.86851
類	-9.86984
▁NTT	-9.87037
メモ	-9.87067
為	-9.8707
会見	-9.87072
強さ	-9.87083
の姿	-9.87095
菜	-9.87106
フィー	-9.87139
セクシー	-9.8714
ショッピング	-9.87143
狙	-9.87145
バレンタイン	-9.87154
dig	-9.87155
マスコミ	-9.87156
オシャレ	-9.87162
セキュリティ	-9.87163
▁ライブドアブログ	-9.87165
と語った	-9.87195
病	-9.87206
を使用し	-9.87211
ホラー	-9.8723
MS	-9.87272
にくい	-9.87274
のため	-9.87294
東京都	-9.87306
驚く	-9.87348
ニック	-9.87396
したのは	-9.87404
イヤー	-9.87409
が表示され	-9.87478
空気	-9.87547
当日	-9.8765
?・	-9.87694
が気になる	-9.87763
無料で	-9.87769
参	-9.87826
給	-9.87888
効	-9.8789
透	-9.87891
価値	-9.87903
ヴァ	-9.87918
あなたは	-9.8792
縦	-9.87923
見事	-9.87925
攻	-9.87933
父親	-9.87933
防塵	-9.87936
楽しんで	-9.87947
濃	-9.87962
協会	-9.87969
正式	-9.8804
ルーター	-9.88043
正直	-9.8805
ap	-9.88243
タイプの	-9.88355
!(	-9.88415
4.0	-9.88416
ッツ	-9.88443
にも対応	-9.88512
発表した	-9.88555
字	-9.88597
明日	-9.88656
算	-9.88676
大きい	-9.88682
伝説	-9.88686
試写会	-9.88691
ジャンプ	-9.88702
docomo	-9.88702
東芝	-9.88706
調べ	-9.88736
DR	-9.88746
発売日	-9.88759
ますよね	-9.88857
筆者	-9.88873
集まって	-9.8889
何を	-9.88909
ひとり	-9.88957
新たに	-9.88985
本音	-9.8905
起き	-9.89059
ないように	-9.89135
少女	-9.89184
売れ	-9.89186
じゃないですか	-9.89266
メン	-9.89303
るのか	-9.89303
てない	-9.89396
不倫	-9.89435
演じ	-9.89441
宝	-9.89461
先輩	-9.89481
ロンドン	-9.89492
奪	-9.89493
電波	-9.89495
明かす	-9.89498
普通	-9.89518
加藤	-9.89539
不満	-9.89563
IE	-9.89592
支え	-9.8964
ING	-9.89694
税	-9.8971
機会	-9.89769
04	-9.8979
今後の	-9.89804
を持ち	-9.90022
かけて	-9.90105
ボン	-9.90145
ことになる	-9.90176
ヘア	-9.90215
色々	-9.90227
▁livedoor	-9.90248
準	-9.90253
競技	-9.90254
盤	-9.90259
誤	-9.90262
カスタマイズ	-9.90271
否定	-9.90292
デジタル機器	-9.90301
炎上	-9.90308
まだまだ	-9.90351
SSD	-9.90365
知らない	-9.90386
あなたが	-9.90391
周年	-9.90394
年度	-9.90504
われた	-9.90525
と一緒に	-9.9057
さない	-9.90621
題	-9.90672
張り	-9.9069
Re	-9.90716
暑	-9.90792
モテる	-9.90796
EOS	-9.90804
彼女は	-9.90825
息	-9.90879
きっかけ	-9.90949
像	-9.90992
魔	-9.91015
せない	-9.91039
暮らし	-9.91044
猫	-9.91047
繰り広げ	-9.91047
フォト	-9.9106
デジカメ	-9.91067
-07	-9.9107
The	-9.91073
かれた	-9.9109
時点で	-9.91092
遅	-9.91098
発売される	-9.91138
姿勢	-9.9115
%)	-9.9116
があって	-9.91224
映像を	-9.91283
ですから	-9.91313
手を	-9.9133
ジャック	-9.91484
報じた	-9.91632
ドコモの	-9.91734
視聴	-9.91763
ユーザーが	-9.91792
ur	-9.91812
語る	-9.91821
照	-9.91834
造	-9.91839
政府	-9.91841
兵	-9.91848
陽	-9.91856
翌	-9.91861
事務所	-9.91871
チョコ	-9.91883
ショコラ	-9.91889
マッチ	-9.91898
おう	-9.91908
みなさん	-9.91917
現場	-9.9192
案内	-9.91921
チュー	-9.91999
-04	-9.92026
使って	-9.92042
触	-9.92047
女子の	-9.92049
の中に	-9.92088
ネット上で	-9.92114
果たして	-9.92122
彼女が	-9.92167
ウェ	-9.92183
来日	-9.92212
うちに	-9.92244
かつ	-9.92264
なんです	-9.92279
開催される	-9.92301
クリア	-9.9231
始めた	-9.92335
ちゃんと	-9.92398
価	-9.92441
)]	-9.92499
知られ	-9.92502
芸能	-9.92521
裕	-9.9263
津	-9.92647
抗	-9.92648
喫	-9.92659
に合わせて	-9.92661
箱	-9.92664
マウス	-9.92665
ハード	-9.92677
復活	-9.9268
犬	-9.92685
常識	-9.92687
経済	-9.92688
素敵な	-9.92688
バル	-9.92699
最後の	-9.92712
選手権	-9.92714
カーター	-9.92742
を楽しむ	-9.92775
持つ	-9.92776
バイト	-9.92794
私が	-9.92836
姿を	-9.92855
トゥ	-9.92875
を持っている	-9.92883
スペース	-9.92901
サイド	-9.92935
テスト	-9.92964
集中	-9.93092
中島	-9.93098
女性は	-9.93112
始	-9.9315
続いて	-9.93175
MO	-9.93297
が行われ	-9.93298
AV	-9.93307
ということです	-9.93313
主な	-9.93386
ブログで	-9.93392
現代	-9.93405
挑	-9.93409
牛	-9.93419
増え	-9.93449
割り	-9.93452
杉	-9.93458
境	-9.93459
テク	-9.9347
思い出	-9.93475
ワイヤレス	-9.93486
コスメ	-9.93488
アピール	-9.93491
コレクション	-9.93491
バラエティ	-9.93494
ウェブ	-9.93523
軽量	-9.93533
替	-9.93782
ですけど	-9.93902
届	-9.93945
なっている	-9.93995
おい	-9.94052
復	-9.94164
EC	-9.942
聞き	-9.94239
ショット	-9.94266
彼は	-9.94267
を受けた	-9.94269
といい	-9.94274
プログラム	-9.94289
イケメン	-9.94298
完了	-9.94304
と呼ばれる	-9.94306
を通じて	-9.94307
当たる	-9.94309
RainbowApps	-9.94311
デュアルコア	-9.94312
政治	-9.94323
低い	-9.94396
ヨナ	-9.94413
ミング	-9.94446
ショート	-9.94453
んじゃない	-9.94524
と言う	-9.94526
毎	-9.94536
LA	-9.94568
デン	-9.94572
オブ	-9.94578
続々	-9.94617
スパ	-9.94808
という声	-9.94817
目を	-9.94903
取る	-9.94947
継	-9.94968
発売する	-9.94988
年夏モデル	-9.95047
シンプル	-9.95074
崩	-9.95075
豊	-9.95086
つける	-9.95094
財	-9.95095
責任	-9.95116
お互い	-9.95118
犯	-9.95127
始まる	-9.95139
韓国人	-9.95143
ロス	-9.95185
長友	-9.95189
まったく	-9.95202
かね	-9.95216
3.0	-9.9523
ユー	-9.95346
するために	-9.95406
センス	-9.95445
中村	-9.95497
33	-9.95599
46	-9.95609
もなく	-9.95634
話し	-9.95684
疑問	-9.95789
含	-9.95854
バカ	-9.95859
確かに	-9.95927
登	-9.9593
団体	-9.9594
いずれ	-9.95953
銀	-9.95958
訳	-9.9596
月下旬	-9.95963
を超える	-9.95964
エース	-9.95964
標準	-9.95966
雨	-9.95969
ようになる	-9.95971
雅	-9.95978
といえる	-9.95981
ect	-9.95986
優しい	-9.96003
漫画家	-9.96039
もらえる	-9.96084
に行った	-9.96177
199	-9.96252
都内	-9.96291
GT	-9.96332
つぶ	-9.96378
シート	-9.96379
皆	-9.96392
バンド	-9.96469
中心	-9.96487
生きる	-9.96539
自分を	-9.96655
属	-9.96748
の間に	-9.96785
寒	-9.96791
コントロール	-9.96802
IceCream	-9.96811
する方法	-9.96813
嘘	-9.96813
どれ	-9.96858
運動	-9.9688
隠	-9.9689
のではないか	-9.96906
apps	-9.96918
賞品	-9.96921
抜け	-9.96953
従来の	-9.97021
されない	-9.97028
たちは	-9.97085
規格	-9.97126
マル	-9.9725
別れ	-9.97276
FA	-9.97474
脚	-9.97566
ようと	-9.97578
普通の	-9.97612
富	-9.97613
述	-9.97621
護	-9.97623
いっぱい	-9.97633
ゾ	-9.97641
変わり	-9.97644
底	-9.97644
マジ	-9.97652
混	-9.97653
Intel	-9.97658
と共に	-9.97662
Hulu	-9.97663
デバイス	-9.97664
気軽に	-9.97666
いたら	-9.97667
慎	-9.97668
をテーマに	-9.97709
感情	-9.97719
ることで	-9.97773
ほどの	-9.97825
nt	-9.97877
エンタ	-9.97915
時代の	-9.97923
きている	-9.97942
を表示	-9.97991
してみて	-9.98023
知り	-9.98071
乗り	-9.98142
ポン	-9.98158
記事では	-9.98191
っていく	-9.98245
ごと	-9.98292
知って	-9.98305
節	-9.98416
ライフ	-9.9843
を見つけ	-9.98473
須	-9.98479
詳しく	-9.98489
を描いた	-9.98492
鈴木	-9.98497
YouTube	-9.98506
鳴	-9.98516
ドコモは	-9.9852
分かる	-9.9852
科学	-9.98536
終了しました	-9.98557
吉田	-9.98616
個性	-9.98629
あたり	-9.98643
方向	-9.98823
生放送	-9.98845
美しく	-9.98858
59	-9.98977
向けアプリ	-9.99034
つなが	-9.99306
門	-9.99312
せい	-9.99314
亡	-9.99326
勉強	-9.99338
ヒット	-9.99347
候補	-9.99354
周辺	-9.9936
アプリケーション	-9.9936
高画質	-9.9936
思わず	-9.99365
store	-9.99373
下さい	-9.99373
ラジオ	-9.99375
▁Note	-9.99376
恐	-9.99378
小説	-9.99382
?「	-9.99383
ご紹介	-9.99389
鍋	-9.99401
言った	-9.99414
数字	-9.9944
人類	-9.99516
対戦	-9.99554
だと思う	-9.99663
TM	-9.99753
さら	-9.99781
頑張って	-9.99813
さんと	-9.99823
と語り	-9.99951
ファイルを	-10.0006
!!」	-10.0011
してください	-10.0013
年後	-10.0017
についても	-10.0018
縁	-10.0023
訴	-10.0023
貧	-10.0023
プロフィール	-10.0024
ダークナイト	-10.0024
ゆっくり	-10.0024
NOTTV	-10.0025
ハッピー	-10.0025
雄	-10.0026
行う	-10.0026
遊び	-10.0026
激怒	-10.0026
もらいたい	-10.0028
福島	-10.0029
読んで	-10.003
もらう	-10.0031
ボード	-10.0035
起用	-10.0037
絶対に	-10.0052
MB	-10.0056
助け	-10.0058
ところで	-10.0059
るのが	-10.0063
触れ	-10.0065
45	-10.0066
頑張	-10.009
腹	-10.0094
お前	-10.0096
まるで	-10.01
99	-10.0102
著	-10.0103
オフィス	-10.0108
のではないでしょうか	-10.0109
医	-10.0111
シングル	-10.0112
尾	-10.0112
ロボット	-10.0113
結局	-10.0113
黄	-10.0114
暴露	-10.0114
垣	-10.0115
さすが	-10.0116
現役	-10.012
。[	-10.0124
の最新	-10.0128
動物	-10.0131
ほしい	-10.0134
が決定した	-10.0137
月末	-10.0145
読者	-10.0157
送り	-10.0163
っこ	-10.0173
ルール	-10.0177
キロ	-10.0183
ごとに	-10.0187
当たり	-10.019
のイメージ	-10.0195
源	-10.0196
ニコニコ	-10.0198
努力	-10.0198
之	-10.0199
WEB	-10.0199
▁touch	-10.02
チャレンジ	-10.02
を目指し	-10.0201
マッサージ	-10.0201
飯	-10.0202
値段	-10.0203
同じく	-10.0205
発売時期	-10.021
別に	-10.0213
巨大	-10.0215
購入した	-10.0218
岡田	-10.022
体重	-10.0224
分かり	-10.0224
されました	-10.0228
取れ	-10.023
ないもの	-10.0231
のかもしれない	-10.0239
に入る	-10.024
円で	-10.0246
してみる	-10.0251
パック	-10.0252
NG	-10.0253
輝	-10.0266
なった	-10.0279
84	-10.028
るべき	-10.0283
ドン	-10.0285
油	-10.0286
束	-10.0286
面白い	-10.0287
ソーシャル	-10.0288
REGZA	-10.029
失敗	-10.0292
THE	-10.0292
「2012	-10.0301
シェア	-10.0317
何も	-10.032
よかった	-10.0322
持って	-10.0322
いただき	-10.0333
しているので	-10.0334
▁4.0(	-10.0337
に参加	-10.0347
こともある	-10.0351
史上	-10.0354
前回	-10.0369
印	-10.0377
換	-10.0377
冊	-10.0377
そもそも	-10.0378
プレーヤー	-10.0378
パネル	-10.0379
枠	-10.0379
マーケット	-10.038
Word	-10.038
八	-10.038
チャンネル	-10.038
月々サポート	-10.0381
三浦	-10.0381
反対	-10.0382
解消	-10.0385
言われ	-10.0391
を果たした	-10.0393
投手	-10.0395
時には	-10.0397
クラス	-10.0417
なくなった	-10.0433
したという	-10.0438
誰か	-10.0438
わずか	-10.0442
できるので	-10.045
盛	-10.0453
故	-10.0459
告	-10.046
という言葉	-10.0462
クレ	-10.0463
と言って	-10.0464
我	-10.0467
泉	-10.0468
禁止	-10.0469
ズーム	-10.047
テクニック	-10.047
潤	-10.047
主張	-10.0471
SDHC	-10.0471
分からない	-10.0471
コーヒー	-10.0471
っており	-10.0472
付属	-10.0472
連携	-10.0472
満載	-10.0472
受付	-10.0472
くなって	-10.0472
改めて	-10.0472
になっています	-10.0479
不要	-10.048
金額	-10.0482
ならではの	-10.0484
と言われ	-10.0489
その他にも	-10.0496
▁16	-10.0499
・・・。	-10.051
開け	-10.0514
寄せられ	-10.0521
他人	-10.0528
離	-10.0529
BE	-10.0534
利用者	-10.0538
ダル	-10.054
辞	-10.055
密	-10.0553
河	-10.0554
興	-10.0555
ファンから	-10.0556
鏡	-10.0559
如	-10.056
株	-10.056
ビジュアル	-10.056
絆	-10.0561
湯	-10.0561
長谷部	-10.0561
汗	-10.0561
皇	-10.0561
児	-10.0561
変わった	-10.0561
過ごす	-10.0561
緊張	-10.0561
疑惑	-10.0561
吸	-10.0562
遣	-10.0562
オーストラリア	-10.0562
進め	-10.0562
テレビ朝日	-10.0563
-02	-10.0563
泳	-10.0563
つもり	-10.0565
反論	-10.0566
楽曲	-10.0567
職場	-10.0567
プロレス	-10.0569
他にも	-10.0584
ポール	-10.0587
方式	-10.0588
とのことです	-10.0594
ルーム	-10.0597
判断	-10.0601
番組内で	-10.0602
高さ	-10.0603
野村氏	-10.0609
直後	-10.0611
々と	-10.0623
来る	-10.0629
作家	-10.0638
In	-10.0645
行われ	-10.0649
包	-10.0651
おしゃれ	-10.0651
とにかく	-10.0652
五	-10.0653
なさい	-10.0654
臨	-10.0654
即	-10.0654
トレンド	-10.0654
サムスン	-10.0655
伊	-10.0655
microSD	-10.0655
今度は	-10.0656
結構	-10.0656
切り替え	-10.0657
始まった	-10.0657
ライフスタイル	-10.0658
答	-10.0661
装着	-10.0663
詰め	-10.0663
週間ランキング	-10.0665
全員	-10.0666
わけだ	-10.0667
発信	-10.0667
使われ	-10.0671
してみた	-10.0671
女王	-10.0673
本格	-10.0676
GPS	-10.0677
好み	-10.0679
毎月	-10.068
ここまで	-10.068
ないので	-10.0683
タグ	-10.0683
マイク	-10.0688
▁Facebook	-10.0694
たっぷり	-10.0694
割引	-10.0697
を作成	-10.0704
方も	-10.0705
ることができ	-10.0708
続けた	-10.0713
ますね	-10.072
出てくる	-10.0727
私たち	-10.0729
男性は	-10.0732
はじめ	-10.0736
止	-10.0736
育て	-10.0737
更	-10.0737
が悪い	-10.0739
同番組	-10.0741
液	-10.0745
遅れ	-10.0745
お願い	-10.0746
を目指す	-10.0747
ユニット	-10.0747
ませ	-10.0747
いたい	-10.0747
美しさ	-10.0747
焦	-10.0748
いきたい	-10.0748
病院	-10.0748
攻撃	-10.075
sp	-10.0753
PO	-10.0754
ホット	-10.0759
配合	-10.0761
を採用した	-10.0761
しようと	-10.0778
記事をもっと見る	-10.0788
なります	-10.079
するのが	-10.0791
PA	-10.0812
重要な	-10.0817
嫌い	-10.0818
魅力的	-10.0825
を感じる	-10.0838
を始め	-10.0838
響	-10.084
叫	-10.0842
してしまった	-10.0842
プラットフォーム	-10.0843
ぽ	-10.0843
プライベート	-10.0843
塚	-10.0843
遂	-10.0843
▁作品情報	-10.0844
就職	-10.0844
ネイル	-10.0844
ダウン	-10.0844
刺激	-10.0844
控え	-10.0845
高橋	-10.085
辞め	-10.085
彼が	-10.0854
占い	-10.0855
新製品	-10.0865
と考え	-10.0866
前半	-10.0871
しろ	-10.0874
上げた	-10.0882
始め	-10.0896
最低	-10.09
新商品	-10.0904
回目	-10.0908
今後も	-10.0909
だったり	-10.0918
で行われた	-10.0929
誠	-10.0937
輪	-10.0937
百	-10.0939
紗栄子	-10.0939
シネマズ	-10.0942
ダブル	-10.0946
週末	-10.0947
の高さ	-10.0949
芸	-10.0952
Book	-10.0958
生産	-10.0959
学ぶ	-10.0961
年ぶり	-10.0968
BA	-10.0972
引っ	-10.0972
考	-10.0976
付ける	-10.0979
ハリ	-10.0999
RT	-10.0999
にならない	-10.1001
開く	-10.1011
アレ	-10.1016
マツコ	-10.1029
独自の	-10.1031
東日本大震災	-10.1031
姫	-10.1031
参考	-10.1033
掲示板	-10.1033
賢	-10.1033
浜	-10.1034
ちゃんねる	-10.1035
アンドロイド	-10.1035
を舞台に	-10.1036
復興	-10.1036
太陽	-10.1036
保証	-10.1037
広島	-10.1041
同誌	-10.1042
重量	-10.1044
得点	-10.1044
聞く	-10.1052
巨	-10.1059
生活を	-10.1068
史上最	-10.1068
キュ	-10.1079
それで	-10.1079
わけで	-10.1084
なぁ	-10.1112
ようで	-10.1116
見られる	-10.1117
本物	-10.112
歴	-10.1123
リンク	-10.1123
謝	-10.1126
妊娠	-10.1126
到	-10.1129
意外と	-10.1129
自己	-10.113
徹底	-10.1131
iTunes	-10.1131
順次	-10.1136
共感	-10.1137
司会	-10.1137
イオン	-10.1141
と思っている	-10.1143
なくなって	-10.1144
協力	-10.115
べく	-10.1158
落とし	-10.1161
若者	-10.1163
を受けて	-10.1172
ハム	-10.1172
訪れ	-10.1177
先生	-10.1179
といわれ	-10.1186
深い	-10.1186
実行	-10.12
クス	-10.12
優れ	-10.1205
を追加	-10.1208
合コン	-10.1219
傾向	-10.1225
姉	-10.1226
旧	-10.1227
大統領	-10.1227
停止	-10.1228
させていただきます	-10.1228
小さな	-10.1228
ぐらい	-10.123
アクセサリー	-10.123
効率	-10.1231
ケータイアップデート	-10.1232
ビジネスパーソン	-10.1232
の写真ギャラリー	-10.1232
▁Pro	-10.1235
発覚	-10.1235
トム	-10.1252
クリス	-10.1256
紀	-10.1283
パク	-10.1291
ていました	-10.1291
ときは	-10.1295
くん	-10.1307
ついた	-10.1316
宅	-10.132
投資	-10.1322
ニコ	-10.1323
ジャンル	-10.1326
遺	-10.1327
不具合	-10.1328
ライフハック	-10.1328
と答えた	-10.1328
現象	-10.1328
定額	-10.1329
前田敦子	-10.1329
だからこそ	-10.133
有料	-10.1334
グローバル	-10.1336
人には	-10.1336
ライター	-10.1342
てみると	-10.1343
逆に	-10.1345
年代	-10.1348
人もいる	-10.1349
怖い	-10.1351
逃げ	-10.1352
しかない	-10.1368
続けて	-10.1372
ear	-10.1374
09	-10.1382
アカデミー賞	-10.1383
楽しむ	-10.1386
エロ	-10.1387
ku	-10.1391
:30	-10.1407
もあります	-10.1412
kg	-10.1414
記憶	-10.1426
浩	-10.1427
パラ	-10.1429
竹島	-10.1429
生活保護	-10.1429
放射線	-10.143
賀	-10.143
お腹	-10.1438
ha	-10.1441
てくれ	-10.1442
日本では	-10.1449
に行って	-10.1451
お肌	-10.1454
伝えている	-10.1459
日に発売	-10.146
語った	-10.146
重さ	-10.1474
ent	-10.148
▁MOVIE	-10.1484
トロ	-10.1484
つけた	-10.1485
no	-10.1498
na	-10.1503
ネット上では	-10.1506
今日は	-10.1515
承	-10.1523
今回紹介する	-10.1524
すこと	-10.1526
(2012	-10.1526
クラウド	-10.1527
タイミング	-10.1528
アナウンサー	-10.1528
納得	-10.1529
ディスク	-10.1529
予選	-10.1529
news	-10.1529
▁Blog	-10.153
芸能界	-10.153
緊急	-10.153
ly	-10.153
脂	-10.1531
取得	-10.1531
味わい	-10.1532
キーワード	-10.1532
上陸	-10.1534
進出	-10.1535
不正	-10.1556
各国	-10.1557
公開される	-10.1557
同期	-10.1558
げる	-10.1562
することができます	-10.1563
大幅	-10.1563
を見た	-10.1566
声優	-10.1571
を利用する	-10.1573
出来る	-10.1577
コンビ	-10.1578
出力	-10.158
食べる	-10.1591
と思い	-10.1593
2008	-10.1602
付いて	-10.1608
SE	-10.161
私も	-10.1623
章	-10.1627
矢野	-10.1627
est	-10.1627
が開始され	-10.1627
リラックス	-10.163
メートル	-10.163
問い合わせ	-10.1631
佐	-10.1631
まして	-10.1631
クイズ	-10.1632
▁要件	-10.1632
ELUGA	-10.1632
逸	-10.1632
を読み	-10.1633
奇跡	-10.1633
日深夜放送	-10.1634
素晴らしい	-10.1635
になってしまう	-10.1636
できません	-10.164
話題となっている	-10.1641
寄り	-10.1648
わせ	-10.1652
ネコ	-10.1653
5000	-10.1657
イヤ	-10.1658
する声も	-10.1658
っていうのは	-10.1661
決して	-10.1664
とっても	-10.1672
ませんか	-10.1675
会長	-10.1678
パート	-10.1693
しまい	-10.1708
あん	-10.1709
一時	-10.1714
露	-10.1716
6%	-10.1724
判	-10.1726
予告	-10.1726
領	-10.1729
辺	-10.1733
菓	-10.1733
強い味方	-10.1734
グーグル	-10.1734
終わった	-10.1734
ノミネート	-10.1734
抗議	-10.1735
TOHO	-10.1735
eserved	-10.1735
運営	-10.1735
わず	-10.1737
一切	-10.1749
加え	-10.1753
いつでも	-10.1758
充	-10.1768
長い	-10.1771
ああ	-10.1774
おります	-10.1788
チリ	-10.179
はじめて	-10.1795
てみてはいかが	-10.1802
使っている	-10.181
予	-10.1814
68	-10.1816
差し	-10.1817
トイレ	-10.1818
ワイルド	-10.1833
襲	-10.1834
上手	-10.1834
事情	-10.1835
鼻	-10.1837
裸	-10.1837
招待	-10.1837
燃	-10.1838
堪	-10.1838
外国人	-10.1838
呼ばれ	-10.1838
ガイド	-10.1838
▁All	-10.1839
を持った	-10.1839
と思われ	-10.184
にも関わらず	-10.184
コラボレーション	-10.184
ノムさん	-10.1841
役立つ	-10.1841
放題	-10.1842
台湾	-10.1844
,800	-10.1851
向けに	-10.1864
(※	-10.1867
はいかが	-10.1872
ロケ	-10.1877
ビール	-10.1883
すぎて	-10.1894
実力	-10.1902
ておきたい	-10.1904
前作	-10.1912
紹介しよう	-10.1915
キュー	-10.1915
祭	-10.1916
からね	-10.1922
広く	-10.1934
app	-10.1936
時から	-10.1938
冷え	-10.1938
スコット	-10.194
湿	-10.1941
瀬	-10.1942
小さい	-10.1942
衛	-10.1942
意外な	-10.1942
書籍	-10.1942
うれしい	-10.1943
被災地	-10.1943
ストレージ	-10.1943
衆	-10.1943
港	-10.1944
SIM	-10.1944
諦め	-10.1944
ビッグ	-10.1944
ANDROID	-10.1944
巡	-10.1944
地震	-10.1945
はコチラ	-10.1945
捕	-10.1945
奴	-10.1946
ブース	-10.1948
集まる	-10.1948
これらの	-10.1951
カリ	-10.1955
木村	-10.1956
決まって	-10.1956
上位	-10.1958
しっかりと	-10.1958
達成	-10.1961
勝ち	-10.1962
戦う	-10.1963
地元	-10.1972
心地	-10.1979
きっと	-10.1991
さて	-10.1992
CL	-10.1995
購入する	-10.1997
マスク	-10.2006
いなかった	-10.2007
ワーク	-10.202
IR	-10.2024
デル	-10.2039
篇	-10.2044
彦	-10.2048
況	-10.2049
嫁	-10.2049
徳	-10.2049
をご紹介します	-10.205
朗	-10.205
メイド	-10.2051
課題	-10.2052
配置	-10.2052
格好	-10.2053
吹き	-10.2054
喜び	-10.2054
自宅	-10.2055
勇気	-10.2055
ミッション	-10.2057
形式	-10.2058
オーバー	-10.2061
パーティー	-10.2067
露出	-10.2069
を受ける	-10.207
大事	-10.2073
有名な	-10.2093
づけ	-10.21
をかけて	-10.2117
新作	-10.212
状態で	-10.2131
やりたい	-10.2134
林	-10.2149
2.0	-10.2151
を重ね	-10.2155
パーティ	-10.2155
緒	-10.2155
腰	-10.2156
みよう	-10.2157
栄養	-10.2157
臭	-10.2157
継続	-10.2157
浅	-10.2158
GPU	-10.2158
益	-10.2158
パターン	-10.2158
駆け	-10.2158
物議を醸している	-10.2159
通販	-10.2159
船	-10.216
判明	-10.216
磨き	-10.2162
ights	-10.2162
多少	-10.2162
独自	-10.2164
CMOS	-10.2167
記事によると	-10.2168
実感	-10.2173
見た目	-10.2175
合計	-10.2176
を見せた	-10.2186
そこに	-10.2187
製品情報	-10.2188
ブロック	-10.2192
申し	-10.2193
当初	-10.2196
一本	-10.2202
BL	-10.2203
議員	-10.2205
ry	-10.2209
焼き	-10.2213
知子	-10.2215
この映画	-10.2222
昨日	-10.2227
てくれます	-10.2229
2000	-10.2234
従来	-10.2238
ちょっとした	-10.2259
妹	-10.2261
営	-10.2261
棒	-10.2263
大島優子	-10.2263
ラインナップ	-10.2265
刑	-10.2266
羽	-10.2266
剛	-10.2266
レンタル	-10.2267
フォトギャラリー	-10.2267
Mobile	-10.2267
犯罪	-10.2267
塩	-10.2268
計測	-10.2268
なきゃ	-10.2269
要注意	-10.227
爆発	-10.2271
東北	-10.2273
金メダル	-10.2277
にぴったり	-10.2281
パーツ	-10.2281
浮か	-10.229
重要	-10.2294
っちゃう	-10.2298
教え	-10.2303
本体価格	-10.2305
数々の	-10.231
出身	-10.2311
送信	-10.232
を通して	-10.232
整	-10.2323
になれる	-10.2326
一言	-10.2336
ラム	-10.2338
に入って	-10.2342
バラ	-10.2343
980	-10.2344
するのか	-10.2347
大容量	-10.2355
立つ	-10.2359
ユーザ	-10.2363
筋	-10.237
幼	-10.2373
鬼	-10.2374
消費電力	-10.2375
認識	-10.2375
仕上がり	-10.2375
庫	-10.2375
世紀	-10.2376
ウィンドウ	-10.2376
防止	-10.2376
NEWS	-10.2376
ATSU	-10.2377
参照	-10.2377
スタジアム	-10.2377
閉じ	-10.2377
早速	-10.2378
面倒	-10.2378
あわせ	-10.2382
下げ	-10.2383
ドコモショップ	-10.2386
脚本	-10.2387
こともできる	-10.2388
番号	-10.2391
誰でも	-10.2392
このアプリ	-10.2392
不足	-10.2393
MC	-10.2395
エステ	-10.2395
残り	-10.2397
韓国語	-10.2398
世界初	-10.2399
美肌	-10.2405
ナイト	-10.2413
感じる	-10.2414
アンド	-10.2424
選ばれた	-10.2428
79	-10.243
上がって	-10.2433
していること	-10.2433
寄	-10.2436
を伝えた	-10.2439
サイン	-10.2443
だと思います	-10.2443
上げる	-10.2445
ちょ	-10.2445
影	-10.2446
感じた	-10.2446
シュー	-10.246
直前	-10.2462
早い	-10.2467
いかない	-10.2472
日公開	-10.2476
抜き	-10.248
タブレット端末	-10.2481
測	-10.2481
状	-10.2481
日本でも	-10.2483
フォロー	-10.2484
チーズ	-10.2486
講座	-10.2486
獲	-10.2487
兼	-10.2487
レストラン	-10.2487
スピーカー	-10.2487
終わり	-10.2487
嵐	-10.2487
スティーブ	-10.2488
Apple	-10.2488
MIYU	-10.2488
紺子	-10.2488
▁KO	-10.2488
デスクトップ	-10.2488
ビタミン	-10.2488
教授	-10.2488
はやぶさ	-10.2489
天然	-10.249
訴え	-10.249
と話す	-10.249
むしろ	-10.249
が報じ	-10.2492
質量	-10.2497
品質	-10.2499
ランク	-10.2506
そのため	-10.2506
円前後	-10.2506
NEC	-10.2507
正しい	-10.2507
▁Co	-10.2512
降	-10.2514
:2012	-10.2518
楽しめ	-10.2525
誕生日	-10.2531
このまま	-10.2533
AP	-10.2546
サラ	-10.255
速度	-10.2567
観て	-10.2567
象	-10.2581
なんだか	-10.2583
群	-10.2596
何度も	-10.2596
いわゆる	-10.2597
徹	-10.2598
興行収入	-10.2598
App	-10.2599
宣伝	-10.2599
微	-10.2599
熊	-10.2599
スーツ	-10.26
ワールド	-10.26
自動車	-10.2601
揮	-10.2602
コラム	-10.2607
池田	-10.2607
映画祭	-10.2609
機種変更	-10.2609
適用	-10.2612
カップル	-10.2616
苦手	-10.2619
祭り	-10.2621
行った	-10.2629
が続出	-10.2635
こともあり	-10.2646
月額	-10.2653
LE	-10.2661
長時間	-10.2663
痛い	-10.2676
最近では	-10.2677
ミリ	-10.268
ことが多い	-10.2683
をクリックし	-10.2691
夏モデル	-10.2707
御	-10.271
パケット	-10.2711
孫	-10.2712
仁	-10.2712
HDMI	-10.2713
▁GTX	-10.2714
フルーツ	-10.2714
があれば	-10.2714
封	-10.2715
サポーター	-10.2715
次々と	-10.2715
ヴァンパイア	-10.2717
歴代	-10.2718
対決	-10.2719
踏み	-10.2719
上がった	-10.2719
誰もが	-10.272
を選ぶ	-10.2721
と言われる	-10.2721
どういう	-10.2724
を語った	-10.2728
シップ	-10.2731
ってくれる	-10.2732
店頭	-10.2733
息子	-10.2737
強化	-10.2737
帰って	-10.274
立場	-10.2743
簡単な	-10.2745
贈る	-10.277
以	-10.2773
ロード	-10.2773
ならば	-10.2779
7%	-10.2793
観る	-10.2796
を語る	-10.2799
撮影した	-10.28
予定だ	-10.2806
店員	-10.2808
ver	-10.2809
ってしまった	-10.2815
フィッ	-10.2817
衣	-10.2826
否	-10.2826
ヨーロッパ	-10.2827
音声認識	-10.2827
妙	-10.2828
沖縄	-10.2828
テクノロジー	-10.2829
批判が殺到	-10.2829
が運営する	-10.2829
タップ	-10.2831
上昇	-10.2831
高橋みなみ	-10.2831
オンラインショップ	-10.2831
増加	-10.2832
聞かれ	-10.2834
放送事故	-10.2835
出荷	-10.2836
を記念して	-10.2837
電動	-10.2839
迫力	-10.2842
ランチ	-10.2846
んですよね	-10.2847
ねこ	-10.2847
切る	-10.2849
上記	-10.2853
関心	-10.2874
ければ	-10.2878
都市	-10.2879
まれる	-10.2879
そうですね	-10.2882
ましい	-10.2887
作った	-10.2889
パーク	-10.2903
CH	-10.2903
出演者	-10.291
を獲得した	-10.2926
卵	-10.2937
季	-10.2938
佳	-10.2938
経営	-10.2941
ゆる	-10.2941
エネルギー	-10.2942
DeNA	-10.2943
察	-10.2943
秀	-10.2943
ニューヨーク	-10.2944
使いこなし	-10.2944
ヒュー	-10.2944
キャプチャ	-10.2945
▁with	-10.2945
関西	-10.2945
砂	-10.2946
福岡	-10.2948
ハート	-10.295
相当	-10.2953
早くも	-10.2956
性格	-10.2961
69	-10.2966
あなたも	-10.2971
チャン	-10.2974
発売された	-10.2976
超え	-10.2981
キット	-10.2992
新しく	-10.2995
折り	-10.3007
を残し	-10.3013
ナイ	-10.3038
タカ	-10.3046
宿	-10.3052
EV	-10.3052
プレ	-10.3056
豆	-10.3056
葉	-10.3059
澄	-10.3059
弟	-10.3059
才	-10.3059
甲	-10.306
奇	-10.3061
授	-10.3062
毒	-10.3062
検討	-10.3062
togetter	-10.3062
GeForce	-10.3063
メリット	-10.3063
唱	-10.3063
乳	-10.3063
珍	-10.3064
生徒	-10.3064
総額	-10.3065
豊かな	-10.3066
スケール	-10.307
著者	-10.3074
FP	-10.3075
ゆき	-10.3079
ワード	-10.308
MP	-10.3082
買う	-10.3086
休み	-10.3118
を作って	-10.3121
サム	-10.3128
ゲー	-10.3128
198	-10.3141
05	-10.3149
地方	-10.315
しましょう	-10.315
地上	-10.3151
してほしい	-10.3152
悪く	-10.3154
危機	-10.3163
固	-10.3175
修	-10.3175
ナンバー	-10.3178
将	-10.3179
アルバム	-10.318
罪	-10.318
蹴	-10.318
天才	-10.318
パッケージ	-10.318
則	-10.318
注目を集め	-10.3181
睡眠	-10.3181
Tablet	-10.3181
賞品の発送	-10.3181
渋谷	-10.3181
被	-10.3181
であろう	-10.3182
敏	-10.3182
富士通	-10.3182
技が満載	-10.3182
柴	-10.3183
をご利用	-10.3183
チップセット	-10.3183
色んな	-10.3185
発展	-10.3185
ニコニコ動画	-10.3185
届け	-10.3186
続編	-10.3186
収入	-10.3189
重視	-10.3189
ポーズ	-10.319
動員	-10.319
していました	-10.3196
合った	-10.321
回転	-10.3211
歌手	-10.3211
その一方で	-10.3211
ロール	-10.3229
ところだ	-10.3235
製品名	-10.3239
もらった	-10.3243
新人	-10.3249
大量	-10.325
ことなく	-10.325
しつつ	-10.3266
受け入れ	-10.3266
ってきました	-10.3268
130	-10.3282
就	-10.3298
マネー	-10.3298
紅	-10.3299
尻	-10.3299
暖	-10.33
養	-10.33
貸	-10.33
請求	-10.3302
▁Japan	-10.3302
html	-10.3303
寄付	-10.3304
左右	-10.3305
勝負	-10.3306
良かった	-10.3309
わけではない	-10.331
期間限定	-10.331
落合	-10.3315
各社	-10.3323
無く	-10.3325
特長	-10.3328
!—	-10.3333
を選択する	-10.3334
カズ	-10.3339
通知	-10.334
を変える	-10.3348
生まれた	-10.3355
世界観	-10.3379
消え	-10.338
大好きな	-10.339
思った	-10.3398
話題になった	-10.3399
コレ	-10.3401
になれ	-10.3409
ベイ	-10.3409
マリリン	-10.3411
育成	-10.3414
管	-10.3416
が相次いだ	-10.342
償	-10.3421
卓	-10.3422
いいね	-10.3423
柔道	-10.3423
段階	-10.3423
ボーナス	-10.3423
ワイド	-10.3424
ネーム	-10.3424
を含む	-10.3424
を決めた	-10.3424
屈	-10.3424
化粧品	-10.3424
聖	-10.3424
主要	-10.3427
要素	-10.3428
GM	-10.3428
バレンタインデー	-10.3428
どれだけ	-10.343
薄型	-10.3431
していて	-10.3435
上司	-10.3437
手順	-10.3439
端子	-10.344
巻き	-10.3441
日韓	-10.3444
不明	-10.3445
日本時間	-10.3447
ビット	-10.3462
このような	-10.3465
高性能	-10.3474
登場し	-10.3475
紀子	-10.3479
スミス	-10.3492
いろいろ	-10.3503
LO	-10.3508
高校生	-10.3512
日記	-10.3514
世の中	-10.3515
ルックス	-10.3525
どこか	-10.3525
既に	-10.353
自宅で	-10.3537
しておく	-10.3539
婦	-10.3543
裁判	-10.3543
ブラウザ	-10.3544
リサーチ	-10.3544
咲	-10.3545
スキンケア	-10.3545
一回	-10.3546
オイル	-10.3546
パスワード	-10.3546
照明	-10.3546
にゃんこ	-10.3546
干	-10.3547
貨	-10.3547
ポータブル	-10.3547
省エネ	-10.3547
OFF	-10.3548
変換	-10.3548
投票	-10.3548
信頼	-10.3549
興奮	-10.3549
ポケット	-10.3549
指導	-10.355
後輩	-10.355
伝統	-10.3551
5%	-10.3553
畑	-10.3554
ツイッター上で	-10.3556
劇場版	-10.3556
ww	-10.3557
あふれる	-10.3559
今夏	-10.3559
共同	-10.3561
クルマ	-10.3561
たくなる	-10.3563
を利用した	-10.3568
3.5	-10.3568
圧倒的な	-10.357
エンター	-10.3576
みてはいかがでしょうか	-10.3597
公開され	-10.3597
お酒	-10.3603
フジ	-10.3625
FT	-10.3629
して欲しい	-10.3638
という質問	-10.364
お得	-10.3654
置いて	-10.3662
それだけ	-10.3662
ウィジェット	-10.3668
恐れ	-10.3669
を演じた	-10.3669
デモ	-10.3669
寿司	-10.367
猛	-10.367
梨	-10.3671
ドラッグ	-10.3671
阪神	-10.3671
カッコ	-10.3671
始まり	-10.3671
贅沢	-10.3672
盗	-10.3672
Copyright	-10.3673
▁series	-10.3673
#	-10.3673
外部メモリー	-10.3673
ドキドキ	-10.3674
説教	-10.3674
配布	-10.3675
夜景	-10.3676
コール	-10.3679
集結	-10.3679
決意	-10.3679
中央	-10.3681
前田	-10.3685
デジタルカメラ	-10.3687
観光	-10.3688
だけではなく	-10.3694
ハウス	-10.3698
:1.0	-10.371
子供たち	-10.3726
ペア	-10.3729
風アプリ	-10.3733
コマ	-10.3739
コスト	-10.3744
詰ま	-10.3751
BB	-10.3766
好評	-10.3769
伸	-10.3772
儀	-10.3789
ことも可能	-10.3789
プレゼン	-10.379
智	-10.3795
スケジュール	-10.3795
織	-10.3797
廃	-10.3797
永遠の	-10.3797
プロメテウス	-10.3797
札	-10.3798
待望の	-10.3798
組織	-10.3798
キャプテン	-10.3798
ラウンド	-10.3799
保護	-10.3799
委員会	-10.3799
穴	-10.3799
エヌプラス	-10.3799
実質負担額	-10.38
年目	-10.3802
付き合い	-10.3802
を明かした	-10.3805
広がる	-10.3808
アラサー	-10.3809
ちゃった	-10.381
求人情報	-10.3812
型番	-10.3814
不思議な	-10.3827
グレー	-10.384
書いて	-10.3859
ハマ	-10.3861
本作で	-10.3871
毎年	-10.3875
可能です	-10.3889
隠し	-10.3896
松本	-10.3897
ラスト	-10.3898
陸	-10.3907
ネル	-10.391
教えて	-10.3912
出版	-10.3912
深夜	-10.3919
があるので	-10.3923
覆	-10.3925
綾	-10.3926
貢献	-10.3926
オーディオ	-10.3926
によれば	-10.3927
抜群	-10.3927
連続待受	-10.3927
漢	-10.3927
オプション	-10.3927
トレーニング	-10.3927
まさか	-10.3928
桑	-10.393
明るく	-10.393
現地	-10.3932
はどうなる	-10.3933
シンプルな	-10.3934
自動的に	-10.3934
与	-10.3935
バトル	-10.3936
節約	-10.3936
だったのか	-10.3937
苦言	-10.3939
ゼロ	-10.3941
発電	-10.3941
特別な	-10.3946
メモリ	-10.3946
本奈	-10.3948
ドバイ	-10.395
プリント	-10.395
ネット掲示板には	-10.396
提供元	-10.3961
一戦	-10.3966
知事	-10.398
出産	-10.3981
ダーク	-10.3982
ランニング	-10.3985
んですか	-10.401
野村	-10.4019
ムハウス	-10.4029
はずだ	-10.4038
AF	-10.405
融	-10.405
ているので	-10.4052
耐	-10.4055
窓	-10.4055
隣	-10.4055
注文	-10.4056
繰り返し	-10.4056
’	-10.4056
大きさ	-10.4057
ゴルファー	-10.4057
月上旬	-10.4057
才職兼美	-10.4057
聞こえ	-10.4057
オトナ	-10.4058
亀田	-10.4058
欠かせない	-10.4058
てほしい	-10.4058
マイクロソフト	-10.4058
基準	-10.4059
魔法	-10.4059
一瞬	-10.406
牧田	-10.406
美味しい	-10.406
態度	-10.4063
もしくは	-10.4064
選ぶ	-10.4065
日深夜	-10.4068
ボックス	-10.407
と思っていた	-10.4072
ine	-10.4086
できなかった	-10.4092
ベリー	-10.4097
起こった	-10.4115
480	-10.4126
初回	-10.4137
凄	-10.4159
帰り	-10.4166
せば	-10.4173
覧	-10.4178
メリダ	-10.4178
大好き	-10.4178
携	-10.4183
レート	-10.4183
叶	-10.4186
李	-10.4186
最適な	-10.4187
抽選で	-10.4188
Paul	-10.4189
懐かし	-10.4189
パートナー	-10.4189
兄弟	-10.419
ASUS	-10.419
議論	-10.419
みてください	-10.4192
小林	-10.4192
陸上	-10.4193
回復	-10.4198
視点	-10.4207
ツアー	-10.421
を探している	-10.4211
法人	-10.4211
明らか	-10.4215
いろいろな	-10.4229
池	-10.4229
シャル	-10.4233
賞を受賞	-10.4241
外部	-10.425
真実	-10.4253
贈	-10.4255
言わ	-10.4258
アート	-10.4259
しゃ	-10.4267
加えて	-10.4269
しまいました	-10.4309
荷	-10.4313
ヴ	-10.4317
ウォーズ	-10.4318
府	-10.432
哲	-10.432
招	-10.432
潜	-10.4321
宏	-10.4321
地デジ	-10.4321
賛否両論	-10.4322
JAPAN	-10.4322
Live	-10.4322
ことがわかった	-10.4322
事前予約	-10.4323
華やか	-10.4325
下記の	-10.4325
をタップすると	-10.4325
冷静	-10.4325
出席	-10.433
ドリンク	-10.4334
を経て	-10.4337
を選んで	-10.4341
以外にも	-10.4344
中学生	-10.435
おもしろい	-10.4353
ダンス	-10.4361
いいだろう	-10.4368
じゃん	-10.4376
ことになった	-10.4378
フード	-10.4386
ネット上	-10.4387
を利用して	-10.4396
すると発表し	-10.4413
を与える	-10.4421
仕上げ	-10.4427
といって	-10.4427
彼女たち	-10.4429
ex	-10.4436
取った	-10.4438
障害	-10.4451
帳	-10.4451
アバター	-10.4453
と思われる	-10.4453
すぽると	-10.4454
報じられ	-10.4455
cafe	-10.4455
憲	-10.4455
エキス	-10.4455
スペイン	-10.4456
典	-10.4456
静止	-10.4456
詞	-10.4456
負担	-10.4456
スタイリッシュ	-10.4456
令	-10.4456
唯一	-10.4456
敬	-10.4456
細かい	-10.4456
きちんと	-10.4457
どっち	-10.4457
本田圭佑	-10.4457
絡	-10.4457
記事連動	-10.4457
タッチパネル	-10.4458
週刊	-10.4458
栗	-10.4458
輔	-10.4459
隆	-10.4459
格闘技	-10.446
伸び	-10.446
固定	-10.446
再現	-10.4461
記者会見	-10.4461
結成	-10.4468
切った	-10.4472
進む	-10.4477
ましたね	-10.4477
III	-10.4495
ホー	-10.4499
シネマ	-10.4502
汚れ	-10.4505
▁SX	-10.4516
参入	-10.4517
3%	-10.4517
見られ	-10.4521
選ばれ	-10.4526
net	-10.4531
前面	-10.4533
Core	-10.4543
違	-10.4555
ってみた	-10.4557
人が多い	-10.4559
怖	-10.4563
ペース	-10.4566
女性たち	-10.4572
挙げ	-10.458
刺	-10.4589
コム	-10.4589
夕	-10.459
幻	-10.4591
潮	-10.4591
ハイビジョン	-10.4593
あらかじめご了承ください	-10.4593
レノボ	-10.4593
伴	-10.4594
microSDHC	-10.4594
▁acro	-10.4594
▁of	-10.4595
イルミネーション	-10.4595
教室	-10.4595
農	-10.4595
魚	-10.4595
シャンパン	-10.4595
自慢	-10.4596
賞賛	-10.4599
背面	-10.4602
サーバー	-10.4606
シュート	-10.4609
osh	-10.461
隠れ	-10.4611
-09	-10.4614
上がり	-10.4615
第二	-10.4631
フライ	-10.4647
手間	-10.4653
書いた	-10.4655
京都	-10.4668
開き	-10.4669
age	-10.467
インク	-10.4673
大島	-10.4676
マット	-10.468
になっていた	-10.4681
浮	-10.4681
考え方	-10.4696
−【	-10.4697
勇	-10.4722
汁	-10.4727
童	-10.4728
蔵	-10.4728
ログイン	-10.4729
フィルム	-10.4729
と言えば	-10.4729
勝手に	-10.4729
リュー	-10.473
繁	-10.4732
蓄	-10.4732
タウン	-10.4732
プラズマクラスター	-10.4733
Black	-10.4733
プレッシャー	-10.4733
▁MSM	-10.4733
リアルタイム	-10.4734
積極	-10.4734
権利	-10.4735
佐藤	-10.4735
ation	-10.4737
気をつけ	-10.4738
ヒント	-10.4739
物議	-10.474
引き続き	-10.4742
過ぎる	-10.4744
フォーム	-10.4747
News	-10.4753
書かれて	-10.4757
テレビ番組	-10.4767
これだけ	-10.4768
だったので	-10.477
まとめて	-10.4773
son	-10.4782
本来	-10.4784
整え	-10.479
プチ	-10.4792
お茶	-10.4794
を記録した	-10.4795
一歩	-10.4802
と思いました	-10.4822
写真を撮	-10.4823
止ま	-10.4836
言われて	-10.4836
おもしろ	-10.484
書き込まれ	-10.4841
閉	-10.4866
卒	-10.4869
680	-10.487
幅広い	-10.4871
併	-10.4871
を迎えた	-10.4872
旬	-10.4872
東京スカイツリー	-10.4872
却	-10.4872
コンピュータ	-10.4873
吾	-10.4873
侵	-10.4873
コーディネート	-10.4873
祐	-10.4873
マネージャー	-10.4873
zigsow	-10.4874
せっかく	-10.4874
凍	-10.4874
独占	-10.4874
キュートな	-10.4874
記載	-10.4874
ブックマーク	-10.4874
エアコン	-10.4874
拍	-10.4875
酔	-10.4876
整理	-10.4876
キャスター	-10.4881
東電	-10.4882
交流	-10.4884
アダプター	-10.4885
そんな時	-10.4887
ランス	-10.4889
戦略	-10.4889
スコア	-10.4889
もはや	-10.4889
異常	-10.4894
ゴールド	-10.4898
初期	-10.49
ke	-10.4902
疑問の声	-10.4906
心理	-10.4907
一気に	-10.4913
探し	-10.4913
ガラス	-10.4915
グラフィックス	-10.4916
続けている	-10.4926
子役	-10.4931
年末	-10.4934
を高め	-10.4953
豊富	-10.4964
どのような	-10.4968
しまった	-10.4978
切って	-10.4985
語り	-10.4985
言われた	-10.5007
講	-10.5011
翻訳	-10.5013
審	-10.5014
旦那	-10.5015
冠	-10.5015
学習	-10.5015
Yahoo	-10.5016
拡張	-10.5016
転送	-10.5016
に近づく	-10.5016
熟	-10.5016
致	-10.5016
祈	-10.5016
昼	-10.5017
永久	-10.5017
最終予選	-10.5017
スリム	-10.5017
GREE	-10.5018
龍	-10.5018
渡辺	-10.5019
リズム	-10.5019
いくつか	-10.502
独島	-10.5021
キャッチ	-10.5023
強調	-10.5024
恥ずかしい	-10.5028
デュ	-10.5029
出来事	-10.503
ガールズ	-10.5031
▁GX	-10.5036
vs	-10.5036
NEX	-10.5043
引く	-10.5043
プレス	-10.5051
女子力	-10.5053
選出	-10.5053
作れる	-10.5058
ソース	-10.5058
らぬ	-10.5069
描き	-10.5082
シャン	-10.5086
明け	-10.5095
VO	-10.5107
2006	-10.5109
齢	-10.5135
もらえ	-10.514
添	-10.5148
が用意され	-10.5152
ウルトラ	-10.5155
研	-10.5158
セミナー	-10.5158
すっかり	-10.5159
優秀	-10.516
シャッター	-10.516
は以下の通り	-10.516
票	-10.516
稲	-10.516
月中旬	-10.5161
要求	-10.5161
サウンド	-10.5161
迷惑	-10.5161
延長	-10.5161
ご応募ください	-10.5162
画素数	-10.5162
リスク	-10.5162
違和感	-10.5162
802.11	-10.5162
あらゆる	-10.5162
アスク	-10.5162
主催	-10.5163
やすさ	-10.5164
住宅	-10.5164
ジョジョ	-10.5164
死亡	-10.5164
関東	-10.5165
泥	-10.5165
足りない	-10.5166
カウンター	-10.5166
初登場	-10.5167
使い勝手	-10.5167
我々	-10.5167
上がっている	-10.517
各種	-10.5171
ロシア	-10.5172
ホーム画面	-10.5177
事前に	-10.5196
見ている	-10.5209
暑い	-10.5213
といっても	-10.5245
2)。	-10.5284
てみた	-10.5287
マイクロ	-10.5299
確か	-10.5301
練	-10.5305
跡	-10.5305
まつ毛	-10.5305
僕等がいた	-10.5306
香川真司	-10.5306
尚	-10.5307
易	-10.5307
鋭	-10.5307
確実に	-10.5308
ミュージック	-10.5308
おかしい	-10.5308
見出し	-10.5308
公園	-10.5308
胆	-10.5308
バルセロナ	-10.5308
積極的に	-10.5309
BlackBerry	-10.5309
LUMIX	-10.5309
善	-10.5309
旗	-10.5309
三銃士	-10.5309
苦労	-10.531
ふぉっくす紺子だよ	-10.531
名古屋	-10.531
魅了	-10.531
レビューアー募集	-10.5311
神経	-10.5313
解除	-10.5314
1)。	-10.5315
昨今	-10.5315
を占め	-10.5316
ラインアップ	-10.5317
ファースト	-10.5319
応募方法	-10.5321
万ドル	-10.5323
art	-10.5326
特集ページ	-10.533
ブラシ	-10.533
表面	-10.5332
マシン	-10.5333
数値	-10.5333
コスプレ	-10.5336
プリン	-10.5341
ネット掲示板で話題になっ	-10.5344
売り上げ	-10.5346
深く	-10.5346
を入力し	-10.5358
入社	-10.5368
進んで	-10.5368
ダム	-10.5372
あんな	-10.5376
書店	-10.5378
多くの人	-10.538
去年	-10.5385
任せ	-10.5398
てしまいます	-10.5413
になること	-10.5422
と比べて	-10.5429
回アカデミー賞	-10.5449
かかって	-10.5451
俊	-10.5454
たとえば	-10.5454
特殊	-10.5455
ヒーター	-10.5455
斉	-10.5455
ニッポン	-10.5455
才能	-10.5456
ぴ	-10.5456
Ubuntu	-10.5456
グリーン	-10.5456
代わり	-10.5457
無駄	-10.5457
いろんな	-10.5457
カシオ	-10.5458
mixi	-10.5458
Office	-10.5458
twitter	-10.5458
マザーボード	-10.5459
セレブ	-10.5459
涼	-10.5459
サプライズ	-10.5463
集まった	-10.5463
現地時間	-10.5464
NEXT	-10.5465
を迎える	-10.5467
の方々	-10.5469
帰国	-10.5469
いただく	-10.5469
オーダー	-10.5469
動向	-10.5469
期間中	-10.5472
用意されている	-10.5473
を利用している	-10.5473
済み	-10.5479
どうしても	-10.5481
食品	-10.5482
届く	-10.5482
が表示されます	-10.5486
手紙	-10.5492
が増えている	-10.5502
てみませんか	-10.5509
0,000	-10.5516
ジェイ	-10.5517
されていない	-10.553
Be	-10.5542
ill	-10.5545
訪れた	-10.5546
判断して	-10.5547
入手	-10.5548
どのように	-10.5565
を批判する	-10.5578
温め	-10.5585
態	-10.5592
盛り上げ	-10.5593
大事な	-10.5597
標	-10.5602
録	-10.5603
アンテナ	-10.5606
網	-10.5607
免	-10.5608
余裕	-10.5608
爽	-10.5608
インテリア	-10.5608
舌	-10.5608
に向かって	-10.5609
粋	-10.5609
ドラゴン	-10.5609
維持	-10.5609
吐	-10.5609
ハーフ	-10.5609
クロッシ	-10.5609
LOVE	-10.5609
鍵	-10.5609
妖	-10.561
ファミリー	-10.561
らくらく	-10.561
文章	-10.561
高速データ通信	-10.561
チャンピオン	-10.561
審査	-10.561
滑	-10.561
透明	-10.5611
デザイナー	-10.5611
テーブル	-10.5611
アップロード	-10.5611
空港	-10.5612
いじめ	-10.5612
ピッチャー	-10.5613
確保	-10.5613
オフィシャルブログ	-10.5613
神戸	-10.5615
を含め	-10.5618
相談者	-10.563
萌え	-10.5633
本編	-10.564
ソング	-10.5643
始める	-10.5645
提供します	-10.5646
ケガ	-10.5649
もらい	-10.5661
感じている	-10.5666
気味	-10.5678
を対象に	-10.5697
降り	-10.5714
確認できる	-10.5745
磨	-10.5752
いくら	-10.5752
ドスパラ	-10.5761
匠	-10.5761
踊	-10.5761
北海道	-10.5762
衣装	-10.5762
なきゃいけない	-10.5762
そろそろ	-10.5762
ステーション	-10.5762
が難しくなっ	-10.5763
親友	-10.5763
¥	-10.5763
びっくり	-10.5763
カジュアル	-10.5763
メガネ	-10.5763
威	-10.5763
意外に	-10.5763
アニメーション	-10.5763
ラストレーションフリーパッケージ	-10.5763
おはこんこん	-10.5764
article	-10.5764
柳	-10.5764
を瞬時に	-10.5764
すこし	-10.5764
ための情報を	-10.5764
ホルモン	-10.5764
ようになっています	-10.5766
評判	-10.5766
乙女	-10.5766
どころ	-10.5766
この記事を受け	-10.5767
西武	-10.5767
浮上	-10.5767
おいしい	-10.5769
ダルビッシュ有	-10.5769
地図	-10.577
世間	-10.5777
河本	-10.578
事象	-10.578
特定	-10.5785
生命	-10.579
お届け	-10.5792
lt	-10.5794
わかって	-10.5805
指名	-10.5808
できれば	-10.5809
メッシ	-10.5813
を知る	-10.5814
豊富な	-10.5821
LL	-10.5845
思います	-10.585
していきます	-10.5857
5,000	-10.5861
韓	-10.5868
央	-10.5903
オフィシャル	-10.5911
初心者	-10.5915
イヤホン	-10.5916
圭	-10.5916
促	-10.5917
築	-10.5917
パズル	-10.5917
晩	-10.5917
依頼	-10.5918
房	-10.5918
泡	-10.5918
千葉	-10.5918
ストラップ	-10.5918
圏	-10.5918
スムーズ	-10.5918
ありがとう	-10.5918
欄	-10.5919
グランプリ	-10.5919
NVIDIA	-10.592
スロット	-10.592
IEEE	-10.592
お馴染み	-10.592
口コミ	-10.5921
狭	-10.5921
友情	-10.5922
オフィシャルサイト	-10.5923
ソーラー	-10.5924
実態	-10.5924
ROM	-10.594
日放送分	-10.594
どこまで	-10.5954
世界中の	-10.5971
歩く	-10.5974
を搭載する	-10.5975
周	-10.6027
アクセ	-10.6064
吹	-10.6064
踏	-10.6068
得意	-10.6069
複	-10.6071
カスタム	-10.6072
アラフォー	-10.6073
晴	-10.6074
菌	-10.6075
マーケティング	-10.6075
ショック	-10.6075
マラソン	-10.6076
申請	-10.6076
症状	-10.6076
すっぴん	-10.6076
スッキリ	-10.6077
芝	-10.6077
ドキュメンタリー	-10.6077
お答えします	-10.6078
ダイレクト	-10.6078
霊	-10.6078
自転車	-10.6078
カロリー	-10.6078
mini	-10.6079
秋葉原	-10.6079
武器	-10.6079
暇	-10.6079
ぬいぐるみ	-10.6079
盛り上がり	-10.608
製造	-10.608
ゴールデン	-10.608
検証	-10.608
快適術	-10.6081
ヘッドホン	-10.6081
悠	-10.6081
を代表する	-10.6081
整形	-10.6082
皆様	-10.6083
しゃべ	-10.6083
頭皮	-10.6083
所有	-10.6085
野球解説者	-10.6087
付き合って	-10.6088
投入	-10.609
山崎	-10.6094
メンズ	-10.6094
定番	-10.6096
中止	-10.6096
をきっかけに	-10.6096
プール	-10.6097
が発表され	-10.6101
坂本	-10.6103
通信速度	-10.6125
好きな人	-10.6131
挙がっ	-10.6136
と述べ	-10.6136
その中で	-10.6157
てしまい	-10.6165
与え	-10.6171
ロング	-10.6205
FOMA	-10.6236
教えてくれ	-10.6236
のみならず	-10.6236
勘違い	-10.6236
女子高生	-10.6237
既婚	-10.6237
に応じて	-10.6237
排	-10.6237
クオリティ	-10.6238
に包まれ	-10.6238
貼	-10.6238
モチーフ	-10.6238
のレビューアー	-10.6238
従	-10.6238
フェイスブック	-10.6239
スイング	-10.624
釈	-10.624
Flash	-10.624
いきなり	-10.6241
困難	-10.6241
ピッチ	-10.6242
書類	-10.6243
逆転	-10.6243
▁SIII	-10.6245
キャンプ	-10.6247
本格的な	-10.6247
フォルダー	-10.6251
入団	-10.6259
ホームズ	-10.626
手術	-10.6268
失点	-10.6268
女性自身	-10.6271
ねぇ	-10.6273
違った	-10.6273
チャーリー	-10.6276
はならない	-10.6276
身長	-10.6276
を変えた	-10.6277
したいと思います	-10.6287
調子	-10.6288
あまりにも	-10.6302
もらって	-10.6316
データ通信	-10.6375
緑	-10.6399
偉	-10.6399
ぷ	-10.6401
航	-10.6401
功	-10.6402
寸	-10.6402
削	-10.6402
患	-10.6402
恒	-10.6402
故障	-10.6403
はっきり	-10.6403
国際映画祭	-10.6403
プロセッサ	-10.6403
目立った	-10.6403
週刊文春	-10.6403
に関連した記事をもっと見る	-10.6403
歓	-10.6404
清潔	-10.6404
おさらい	-10.6404
▁Smith	-10.6404
偏	-10.6404
郷	-10.6404
就任	-10.6404
ラーメン	-10.6404
収納	-10.6404
取り上げられ	-10.6406
職業	-10.6406
さらなる	-10.6407
ミルク	-10.6407
声が相次いだ	-10.6408
もともと	-10.6412
安藤	-10.6413
業務	-10.6413
純正	-10.6414
オレンジ	-10.6414
NAS	-10.6415
オファー	-10.6417
戦闘	-10.642
既	-10.6423
モテキ	-10.6424
▁Vu	-10.6426
相性	-10.6426
有機	-10.6428
ホント	-10.6428
輝く	-10.6428
ワケ	-10.6429
コメディ	-10.6435
を守る	-10.6438
×24	-10.6442
てしまって	-10.6449
抜く	-10.6451
行える	-10.6463
と話題に	-10.6465
を果たし	-10.6492
じゃなくて	-10.6492
ドーム	-10.6498
申	-10.6511
汚	-10.6512
定期	-10.6528
▁Class	-10.653
占	-10.653
3000	-10.6535
こっち	-10.6545
違法	-10.6562
七美	-10.6564
惹	-10.6565
灯	-10.6566
閑	-10.6567
URL	-10.6567
を遂げ	-10.6567
担	-10.6568
橋下氏	-10.6568
取り扱い	-10.6569
TOKYO	-10.6569
ギャラリー	-10.6569
床	-10.6569
戸惑	-10.6569
なければならない	-10.6569
慶	-10.6569
レコーダー	-10.6569
明るい	-10.6569
お風呂	-10.6569
バリエーション	-10.6569
乗り越え	-10.6569
罰	-10.6569
勤務	-10.657
庁	-10.657
梅	-10.657
クアッドコア	-10.657
仕事が面白くない	-10.657
丈	-10.657
スキャンダル	-10.657
▁ライジング	-10.657
▁黄金時代篇	-10.6571
▁the	-10.6571
は早すぎる	-10.6571
port	-10.6571
佑	-10.6571
塁	-10.6571
紗	-10.6572
を述べた	-10.6572
描かれてい	-10.6573
コンビニ	-10.6576
味わえ	-10.6576
スポーツ紙	-10.6577
買い物	-10.6579
ガッツ	-10.6579
食材	-10.6581
IPX	-10.6582
POP	-10.6583
広がり	-10.6587
することが可能	-10.659
指原	-10.6591
人は多い	-10.6599
チップ	-10.6603
分かって	-10.6604
松田	-10.6607
可能性がある	-10.6612
連れて	-10.6631
付いた	-10.6636
て欲しい	-10.6707
籍	-10.6711
掲示板上では	-10.672
1,000	-10.6733
供給	-10.6734
いきましょう	-10.6734
植物	-10.6734
堅	-10.6735
変わらない	-10.6735
プロデューサー	-10.6736
ビュー	-10.6736
壮大な	-10.6737
惑星	-10.6737
エンジン	-10.6737
烈	-10.6737
闇	-10.6738
プロモーション	-10.6738
スイッチ	-10.6738
構造	-10.6739
ヨーグルト	-10.6739
週刊誌	-10.6739
ワンピース	-10.6739
拒否	-10.6739
悩みは尽き	-10.6739
プロデュース	-10.674
今回のお悩み	-10.674
そんな様々な悩み	-10.674
狂	-10.674
要因	-10.674
持っている	-10.674
ZOTAC	-10.674
▁Express	-10.674
印刷	-10.674
缶	-10.674
東京ガールズコレクション	-10.674
資料	-10.674
お勧め	-10.674
MNP	-10.6741
ドラフト	-10.6741
斎藤佑樹	-10.6741
陰	-10.6741
竜	-10.6742
都合	-10.6743
岩隈	-10.6743
ほうがいい	-10.6744
ませんでした	-10.6744
ノートパソコン	-10.6744
ステップ	-10.6744
くれた	-10.6745
有吉	-10.6745
と思っています	-10.6745
電車	-10.6748
岡村	-10.6749
今季	-10.6749
添え	-10.6751
コラーゲン	-10.6753
戦争	-10.6753
費用	-10.6754
セール	-10.676
ディナー	-10.676
エール	-10.6774
できるようになっている	-10.6791
出展	-10.6794
と言われている	-10.6797
UQ	-10.6807
利用可能	-10.6811
終了後	-10.6824
方がいい	-10.6846
不思議	-10.6874
置き	-10.6875
オトナ女子映画部	-10.6905
敷	-10.6907
煙	-10.6907
お正月	-10.6907
槙	-10.6908
柔	-10.6908
律	-10.6908
およそ	-10.6909
恐ろしい	-10.691
シャドウ	-10.691
譲	-10.691
礼	-10.691
偽	-10.6911
\	-10.6911
ロバート	-10.6911
沢尻エリカ	-10.6911
アマゾン	-10.6911
拓	-10.6911
検査	-10.6912
特設サイト	-10.6912
ギャル	-10.6912
忠	-10.6912
グルメ	-10.6912
今回の説教	-10.6912
ブレイク	-10.6912
ω	-10.6913
お客さま	-10.6913
お試し	-10.6913
リモコン	-10.6913
受給	-10.6913
野村克也氏	-10.6914
破損	-10.6915
指示	-10.6916
左側	-10.6917
ほか全国ロードショー	-10.6917
公演	-10.6918
鍛え	-10.6921
バックアップ	-10.6923
モニター	-10.6923
ベンチ	-10.6927
愛情	-10.6929
そば	-10.6945
キープ	-10.6947
ちゃいます	-10.6956
それとも	-10.6959
上手く	-10.6963
でありながら	-10.6966
100%	-10.6983
てみましょう	-10.7028
頑張り	-10.7033
掛	-10.7043
病気	-10.7072
ランキングでした	-10.7081
デスク	-10.7082
レギュラー	-10.7082
佐々木	-10.7084
真剣	-10.7085
療	-10.7086
幹	-10.7086
諸	-10.7086
丁	-10.7086
彰	-10.7086
潰	-10.7087
よろしく	-10.7087
蓮	-10.7087
貫	-10.7087
総選挙	-10.7087
エクス	-10.7087
ソウル	-10.7087
邦	-10.7088
ThinkPad	-10.7088
グリフィス	-10.7088
セブン	-10.7088
After	-10.7088
Transcend	-10.7088
White	-10.7088
でチャンスを掴	-10.7088
テザリング	-10.7088
伊集院	-10.7089
ZERO	-10.7089
要請	-10.7089
予防	-10.7089
サッカー解説者	-10.7091
○○	-10.7091
と語っている	-10.7092
を入れて	-10.7092
住所	-10.7096
市民	-10.7096
西岡	-10.7097
場合があります	-10.7098
秋冬	-10.71
石井	-10.71
液晶テレビ	-10.7107
優先	-10.711
今週	-10.7121
加速	-10.7124
明かされ	-10.7131
言えない	-10.7132
ドリーム	-10.7134
借り	-10.7161
批判の声	-10.7196
呆れ	-10.7197
自分自身	-10.7198
変身	-10.7203
ておく	-10.7222
電話番号	-10.7248
と報じ	-10.7252
超大作	-10.7261
副	-10.7262
禁	-10.7263
委	-10.7263
援	-10.7263
著作権	-10.7263
鑑	-10.7264
没	-10.7265
堀	-10.7265
訪問	-10.7266
キャノン	-10.7266
言い訳	-10.7266
相次ぐ	-10.7266
▁Vita	-10.7266
トランセンド	-10.7266
つぶやいた	-10.7266
だらけ	-10.7267
冷蔵庫	-10.7267
スパイダーマン	-10.7267
と切り出した	-10.7267
具体的な	-10.7267
悪魔	-10.7267
ビックリ	-10.7267
申し込み	-10.7268
体操	-10.7268
ふたり	-10.7268
コンテスト	-10.7269
両親	-10.7269
ベイダー	-10.727
イチロー	-10.727
対談	-10.7272
tsu	-10.7272
送料	-10.7274
,980	-10.7274
こういった	-10.7274
も含め	-10.7276
注目を集めている	-10.7278
マンション	-10.728
住む	-10.7282
仮名	-10.7287
国籍	-10.7292
高額	-10.7294
乗せ	-10.7319
ランナー	-10.736
結婚相手	-10.7383
てはいけない	-10.7384
となっており	-10.7427
腐	-10.7439
講演	-10.7442
スクロール	-10.7442
腸	-10.7443
主婦	-10.7443
停	-10.7445
依	-10.7445
キャッシュバック	-10.7446
を救う	-10.7446
脇	-10.7446
随	-10.7446
遼	-10.7447
Kindle	-10.7447
保湿	-10.7447
仕組み	-10.7447
Chrome	-10.7447
筋肉	-10.7447
エッセイ	-10.7447
素早く	-10.7447
興毅	-10.7447
浅田真央	-10.7448
ないといけない	-10.7448
阿	-10.7448
ベイスターズ	-10.7448
▁Effects	-10.7448
オープニング	-10.7448
ゴースト	-10.7449
方針	-10.7449
二股	-10.7449
清武	-10.7449
後篇	-10.7449
カンヌ	-10.745
加工	-10.7452
うまい	-10.7453
遠藤	-10.7453
工夫	-10.7454
一連の	-10.7454
目立つ	-10.7455
毎回	-10.7458
現れる	-10.7458
尽く	-10.7458
当選発表	-10.7458
ヨガ	-10.7462
小学生	-10.7463
輝き	-10.7466
をベースに	-10.7472
公式ブログ	-10.7492
つつある	-10.7578
機能を搭載	-10.7583
を予定してい	-10.7585
ぴったり	-10.76
専	-10.7617
納	-10.7627
ケイト	-10.7627
域	-10.7628
崖っぷち	-10.7629
還	-10.763
出会った	-10.763
呪	-10.7631
澤穂希	-10.7631
地下鉄	-10.7631
コミュニティ	-10.7632
お手入れ	-10.7632
しまって	-10.7632
兄	-10.7632
日に放送された	-10.7632
下り最大	-10.7632
おかしく	-10.7632
六本木	-10.7633
謙	-10.7633
署	-10.7633
周波数	-10.7633
Galaxy	-10.7633
▁天国への階段	-10.7633
SATA	-10.7633
いちおう妖ヶ劇場	-10.7633
ゾーン	-10.7633
q	-10.7633
▁最新記事	-10.7634
磁	-10.7634
構想	-10.7634
壮絶な	-10.7634
死刑	-10.7634
モバイルコミュニケーションズ製	-10.7634
新しくなった	-10.7634
氷	-10.7635
ソーシャルメディア	-10.7636
クイーン	-10.7636
ライバル	-10.7636
バッシング	-10.7636
連続通話	-10.7637
最優秀	-10.764
少女時代	-10.7645
精度	-10.7645
になってしまった	-10.7649
非対応	-10.765
知らず	-10.7651
昨	-10.7665
効果的	-10.7754
を用い	-10.7787
くださいね	-10.7787
因	-10.7816
オーガニック	-10.7817
ヴェ	-10.7818
▁ゆるっと	-10.7818
紫外線	-10.7818
ファンタジー	-10.7819
寂	-10.782
ベストセラー	-10.782
裂	-10.782
花粉	-10.782
ブラジル	-10.782
香里奈	-10.782
文句	-10.7821
こんにちは	-10.7821
互	-10.7821
終わって	-10.7821
波紋を呼んでいる	-10.7821
資格	-10.7821
枝	-10.7821
経由で	-10.7821
銘	-10.7822
レッツノート	-10.7822
Sony	-10.7822
党	-10.7822
紺子にゅうす	-10.7823
を振り返る	-10.7823
追求	-10.7823
お父さん	-10.7823
佐々木希	-10.7823
なるほど	-10.7824
克	-10.7825
東京国際映画祭	-10.7825
ストレート	-10.7826
ランクイン	-10.7826
ごはん	-10.7827
決断	-10.7828
モーター	-10.7829
苦しい	-10.783
スティック	-10.783
シューズ	-10.783
密着	-10.7831
▁Player	-10.7831
美少女	-10.7831
小学校	-10.7832
放送局	-10.7836
突入	-10.7839
ピンチ	-10.784
ray	-10.7925
再開	-10.7941
を送って	-10.7954
が掲載され	-10.7959
アダプタ	-10.7992
債	-10.8002
価値観	-10.8006
スギちゃん	-10.8007
ight	-10.8008
浦	-10.8008
奮	-10.8009
パチンコ	-10.801
寿	-10.8011
詳しい	-10.8011
興味深い	-10.8011
アロマ	-10.8011
条	-10.8011
猿	-10.8012
スピルバーグ	-10.8012
アプローチ	-10.8012
終わる	-10.8012
既存	-10.8013
クリエイティブ	-10.8013
スライド	-10.8014
翔	-10.8014
懸念	-10.8014
紋	-10.8014
発色数	-10.8014
ワールドカップ	-10.8015
沈	-10.8015
そっくり	-10.8015
黙	-10.8015
サクサク	-10.8015
形状	-10.8015
延期	-10.8015
久しぶり	-10.8015
ロッテ	-10.8016
BOX	-10.8016
apple	-10.8016
判定	-10.8017
付録	-10.8018
反省	-10.802
STAR	-10.802
書かれた	-10.802
買収	-10.802
お願いします	-10.8022
想定	-10.8028
清水	-10.8029
ポップ	-10.8029
ことが出来る	-10.8031
たまに	-10.8075
怒りの声	-10.8076
報じている	-10.8079
RSS	-10.8166
延	-10.8201
ピッタリ	-10.8205
銭	-10.8206
ジュース	-10.8207
閣	-10.8207
靴	-10.8207
間違え	-10.8208
具体的に	-10.8208
マイナス	-10.8208
審判	-10.8208
履歴	-10.8208
あくまで	-10.8208
徐々に	-10.8209
─	-10.8209
おかげで	-10.8209
津波	-10.8209
奇妙な	-10.8209
豪華キャスト	-10.8209
Photo	-10.821
で開催された	-10.821
量販店	-10.821
粒	-10.821
ザッケローニ	-10.821
この機会に	-10.821
予算	-10.8211
ひどい	-10.8211
失礼	-10.8211
ハードウェア	-10.8211
夏休み	-10.8212
▁DMC	-10.8213
赤字	-10.8213
らしさ	-10.8216
取引	-10.8216
テンション	-10.8216
見どころ	-10.8218
フラット	-10.8222
を送る	-10.8225
スマートフォンやタブレット	-10.8237
減少	-10.8253
基本的に	-10.8269
0.0	-10.833
に乗っ	-10.8348
スープ	-10.8358
圧倒的	-10.8367
ヶ	-10.8381
地獄	-10.8395
°	-10.8404
紹介していきたいと思います	-10.8405
エイリアン	-10.8405
往	-10.8406
欧	-10.8406
七	-10.8406
摂	-10.8406
忍	-10.8407
眉	-10.8407
マイケル	-10.8407
拡散	-10.8407
星野監督	-10.8408
銅	-10.8408
グレイヴ	-10.8408
橋下市長	-10.8409
ウイルス	-10.8409
Felica	-10.8409
アディダス	-10.8409
呼吸	-10.841
PDF	-10.841
SMAP	-10.841
プロセス	-10.841
リニューアル	-10.841
unes	-10.8411
毛穴	-10.8411
魂	-10.8411
虐	-10.8411
ドライバー	-10.8411
ユニフォーム	-10.8411
知り合い	-10.8411
駆動	-10.8412
銭湯	-10.8412
俊輔	-10.8412
自覚	-10.8412
都合により	-10.8412
蒸	-10.8412
実力派	-10.8412
熱狂	-10.8413
経過	-10.8413
ブーツ	-10.8414
原宿	-10.8416
ネットユーザーからは	-10.8417
モンスター	-10.8417
腐女子	-10.8418
ていきます	-10.8448
ell	-10.8492
多く寄せられた	-10.8571
ことができるので	-10.8572
をみせ	-10.861
沙	-10.8611
電気自動車	-10.8611
塔	-10.8611
Siri	-10.8611
代理店	-10.8611
ニコニコ超会議	-10.8611
裁	-10.8612
プラチナバンド	-10.8612
強烈な	-10.8612
医師	-10.8613
カクテル	-10.8613
急速充電	-10.8613
ワクワク	-10.8613
壇	-10.8613
欧州	-10.8613
フィン	-10.8614
ダイヤモンド	-10.8614
TGC	-10.8614
おなじみの	-10.8614
Firefox	-10.8614
っちり	-10.8615
▁Inc	-10.8615
監修	-10.8615
MHz	-10.8615
サスペンス	-10.8615
給料	-10.8615
容疑者	-10.8615
予約受付	-10.8615
ファイナル	-10.8616
ジョニー	-10.8616
オスカー	-10.8616
ごめん	-10.8616
VTR	-10.8617
スカート	-10.8617
絵文字	-10.8618
公表	-10.8619
無償	-10.8619
ウィルコム	-10.8619
ホームラン	-10.8623
限界	-10.8624
表記	-10.8624
学園	-10.8626
見つめ	-10.8631
に渡って	-10.8654
呼びかけ	-10.8771
遊んで	-10.8781
尊敬	-10.8817
真面目	-10.8817
販	-10.8817
紛	-10.8817
尊	-10.8818
宇佐美	-10.8818
宗	-10.8819
プライバシー	-10.882
バイオハザード	-10.882
釣	-10.882
すっきり	-10.882
変わらず	-10.8821
とは思えない	-10.8821
話題を呼んでいる	-10.8821
ブロガー	-10.8821
眺	-10.8822
おじさん	-10.8822
幾	-10.8822
坊	-10.8822
斉藤	-10.8823
フィルター	-10.8823
〈	-10.8823
ハイエンド	-10.8823
ジェシカ	-10.8823
aVi	-10.8823
領域	-10.8823
支配	-10.8823
▁以降が必要	-10.8823
洗濯機	-10.8823
〉	-10.8823
経緯	-10.8823
あらかじめ	-10.8823
孤独	-10.8823
▁監督作品	-10.8823
家政婦のミタ	-10.8824
修理	-10.8824
デザート	-10.8824
電池パック	-10.8824
ようやく	-10.8825
教師	-10.8825
配給	-10.8826
守備	-10.8826
振り返って	-10.8826
仕掛け	-10.8826
あんまり	-10.8827
全部入り	-10.8827
タイタン	-10.883
告知	-10.883
増額	-10.883
をイメージした	-10.885
位を獲得	-10.8859
の良さ	-10.8871
で放送された	-10.8895
を入れた	-10.8919
チェンジ	-10.8936
っぷり	-10.895
が追加され	-10.8971
ook	-10.8997
嫌われ	-10.9017
が含まれ	-10.9022
プリンセス	-10.9029
制御	-10.9029
生誕	-10.903
洋服	-10.9031
スポンサー	-10.9031
宣	-10.9031
に先駆けて	-10.9032
明るさ	-10.9033
しておこう	-10.9033
カリスマ	-10.9033
にまつわる	-10.9034
究極の	-10.9034
web	-10.9034
を振り返った	-10.9034
監	-10.9034
Zero	-10.9034
奏	-10.9034
を果たす	-10.9034
弘	-10.9034
予測	-10.9035
フィギュア	-10.9035
ミラーレス	-10.9035
貴重な	-10.9035
オフィスエムツー	-10.9035
を使えば	-10.9035
ジャニーズ	-10.9035
Power	-10.9035
Camera	-10.9035
モバステ通信	-10.9035
今夏に発売する予定の	-10.9036
ハワイ	-10.9036
GIGABYTE	-10.9036
ナチュラル	-10.9036
可愛く	-10.9036
池袋	-10.9036
masa	-10.9036
しっとり	-10.9036
ウォン	-10.9036
オタク	-10.9037
沙織	-10.9037
ドーナツ	-10.9037
糖	-10.9037
が簡単に作れ	-10.9038
タッグ	-10.9038
ほんの	-10.9039
選考	-10.9041
を広げ	-10.9043
岡崎	-10.9045
の裏側	-10.906
プレイヤー	-10.9215
葬	-10.9229
フォルダ	-10.9229
仙台	-10.9237
ミシェル	-10.9242
庭	-10.9247
剣	-10.9248
アパレル	-10.9248
ウーマン	-10.9248
ドルトムント	-10.9249
沼	-10.9249
泊	-10.925
困惑	-10.925
梅雨	-10.925
仮面ライダー	-10.925
拳	-10.925
オトコ	-10.925
惨	-10.925
とりあえず	-10.9251
帝	-10.9251
顧	-10.9251
休憩	-10.9251
プレゼント応募期間	-10.9252
シルバー	-10.9252
フロント	-10.9252
エントリー	-10.9252
を超えた	-10.9252
問わず	-10.9252
ともいえる	-10.9252
ヵ	-10.9252
構築	-10.9253
違反	-10.9253
ミラーレス一眼	-10.9253
互換	-10.9253
配慮	-10.9253
に関連した記事を	-10.9253
キラキラ	-10.9253
ドルドレイ攻略	-10.9253
虚	-10.9253
88%	-10.9253
フィットネス	-10.9253
おくだけ充電	-10.9253
いち早く	-10.9253
こんこん	-10.9253
篠田麻里子	-10.9254
ピラミッド	-10.9255
淳	-10.9255
相棒	-10.9257
菅	-10.9257
現れた	-10.9259
プロポーズ	-10.9259
ありえない	-10.9276
伸ばし	-10.929
歩いて	-10.9339
Love	-10.935
大ヒットを記録	-10.9379
が入ってい	-10.9391
墓	-10.9444
訪	-10.9451
尽	-10.946
シーバスリーガル	-10.9466
アナログ	-10.947
カンボジア	-10.947
恩	-10.9471
履	-10.9471
覚悟	-10.9472
サッチャー	-10.9472
退職	-10.9473
ライブ壁紙	-10.9473
医療	-10.9473
フィギュアスケート	-10.9474
ツッコミ	-10.9475
航空	-10.9475
玲	-10.9475
周年記念	-10.9475
報道発表資料	-10.9475
騰	-10.9475
ギフト	-10.9475
様々な意見が寄せられてい	-10.9475
指原莉乃	-10.9475
blog	-10.9476
セリフ	-10.9476
インパクト	-10.9476
寛	-10.9476
うえやま洋介犬	-10.9476
フラッシュ	-10.9476
九	-10.9477
FIFA	-10.9477
スティール	-10.9477
GBROM	-10.9478
デュアル	-10.9479
DATA	-10.948
億ドル	-10.948
たびに	-10.948
の数々	-10.9614
ぇ	-10.965
震	-10.9692
トヨタ	-10.9696
めぐり	-10.9697
鶏	-10.9697
マスカラ	-10.9697
凝	-10.9697
メリル	-10.9698
として知られる	-10.9699
microUSB	-10.9699
憎	-10.97
を示す	-10.97
ジャーナリスト	-10.9701
フォロワー	-10.9701
Dropbox	-10.9701
とも言える	-10.9701
飛行船	-10.9701
厳正なる	-10.9701
見逃せない	-10.9701
桃	-10.9701
憂	-10.9702
魔裟斗	-10.9702
南アフリカ	-10.9702
Hisumi	-10.9702
亮	-10.9702
ボタンの応募フォームから	-10.9702
ロードショー	-10.9702
メキシコ	-10.9702
雲	-10.9702
頃を予定して	-10.9702
DLNA	-10.9702
スーパーマリオ	-10.9702
授賞式	-10.9702
どうやら	-10.9703
需要	-10.9703
壮	-10.9703
8960	-10.9703
臣	-10.9703
3,000	-10.9703
河本準一	-10.9704
膜	-10.9704
モーニング	-10.9704
最後まで	-10.9704
かわいそう	-10.9705
につながる	-10.9707
ッシング	-10.9737
楽しむことができる	-10.9767
が搭載され	-10.9797
暖房	-10.992
PHS	-10.9925
◎	-10.9925
粉	-10.993
丁寧に	-10.9931
加藤課長	-10.9931
邪	-10.9931
クーラー	-10.9931
臓	-10.9932
ジュエリー	-10.9932
拝	-10.9932
メンタル	-10.9932
が勢揃い	-10.9933
をお届けします	-10.9933
長谷川	-10.9933
過酷な	-10.9933
シリコン	-10.9933
杏	-10.9933
に仕上がっている	-10.9934
ユニークな	-10.9934
イライラ	-10.9934
振り返り	-10.9934
表参道	-10.9934
錦織	-10.9934
こなす	-10.9934
カナダ	-10.9934
MMD	-10.9934
最先端	-10.9934
浅尾	-10.9935
‘	-10.9935
レッスン	-10.9935
音の編集講座	-10.9935
PlayStation	-10.9935
▁Tab	-10.9935
かも知れない	-10.9935
□	-10.9935
驚愕	-10.9935
を込めて	-10.9935
受講し	-10.9935
アシスト	-10.9935
スタンダード	-10.9936
メディアバンク	-10.9936
滝	-10.9936
TIME	-10.9936
肝	-10.9936
推測	-10.9937
と苦笑い	-10.9938
ギャップ	-10.9939
雷	-10.9946
に応え	-10.995
いつまでも	-11.002
アプリ開発を	-11.0045
5.0	-11.0104
ぱ	-11.0136
ビッグダディ	-11.0152
乃	-11.0165
慮	-11.0166
塾	-11.0166
符	-11.0167
の法則	-11.0167
邪魔	-11.0168
ハイブリッド	-11.0168
模	-11.0169
おススメ	-11.0169
ロサンゼルス	-11.017
昭	-11.0171
女子大生	-11.0171
閉鎖	-11.0171
複雑な	-11.0171
ズバリ	-11.0171
に所属する	-11.0171
クリーナー	-11.0171
障	-11.0172
刀	-11.0172
隔	-11.0172
環	-11.0172
クリニック	-11.0172
申し訳ない	-11.0172
身近な	-11.0172
mobile	-11.0172
必要事項をご記入	-11.0173
馬鹿	-11.0173
Blu	-11.0173
崇	-11.0173
いつでもどこでも	-11.0173
連続視聴時間	-11.0173
▁Bridge	-11.0173
除菌	-11.0173
傘	-11.0174
溶	-11.0176
借	-11.0308
椀	-11.0407
炭	-11.0415
虫	-11.0416
殿	-11.0416
扉	-11.0417
訂	-11.0418
砲	-11.0419
催	-11.0587
ゥ	-11.0604
括	-11.0661
薫	-11.0663
陥	-11.0663
傾	-11.0663
岸	-11.0664
祖	-11.0664
序	-11.0664
傑	-11.0666
概	-11.0666
`	-11.0667
毅	-11.0667
舎	-11.0667
炊	-11.0667
妬	-11.0667
菱	-11.0668
喝	-11.0668
隙	-11.067
仙	-11.068
徒	-11.0915
珠	-11.0919
惑	-11.0919
伏	-11.092
滞	-11.092
斬	-11.0922
孝	-11.0923
豚	-11.0924
戒	-11.0926
柏	-11.0926
溝	-11.0926
ェ	-11.1016
玄	-11.1176
操	-11.1177
妊	-11.1182
溜	-11.1185
核	-11.1185
葵	-11.1185
膝	-11.1186
旨	-11.1187
採	-11.1438
刃	-11.1444
託	-11.1449
渦	-11.1453
捉	-11.1454
誓	-11.1455
宛	-11.1455
揚	-11.1455
蛍	-11.1456
昌	-11.1457
峰	-11.1721
炎	-11.1724
昇	-11.1726
穏	-11.1731
了	-11.1731
宇	-11.1733
那	-11.1733
遥	-11.1734
径	-11.1735
漠	-11.1735
泰	-11.1736
噛	-11.1737
耕	-11.2016
診	-11.2016
弓	-11.2017
匹	-11.2018
獣	-11.2019
醸	-11.202
癖	-11.202
啓	-11.2022
挫	-11.2022
郵	-11.2022
魅	-11.2301
詩	-11.2307
浪	-11.2308
懸	-11.2311
唇	-11.2311
粘	-11.2312
應	-11.2312
ぺ	-11.2313
侮	-11.2314
恥	-11.2314
脈	-11.2315
謹	-11.2315
斜	-11.2316
瞬	-11.2601
涯	-11.2611
弊	-11.2614
仏	-11.2614
兆	-11.2615
軸	-11.2615
桁	-11.2616
拾	-11.2617
椎	-11.2617
穂	-11.2617
奨	-11.2618
勘	-11.2619
紫	-11.2622
植	-11.2909
牧	-11.2922
拭	-11.2924
斗	-11.2924
辿	-11.2924
句	-11.2925
宴	-11.2926
棄	-11.2926
某	-11.2926
釜	-11.2927
蒼	-11.2928
範	-11.2928
⇒	-11.2928
憶	-11.2929
掘	-11.293
↓	-11.293
妃	-11.293
魁	-11.293
菊	-11.2931
艶	-11.2932
蘇	-11.2932
淡	-11.3247
棲	-11.3248
沿	-11.3248
ァ	-11.3249
凶	-11.325
皿	-11.325
駒	-11.3251
垂	-11.3252
鶴	-11.3252
茂	-11.3254
杭	-11.3254
疾	-11.3255
項	-11.3572
拡	-11.3573
彫	-11.3579
飼	-11.3579
痴	-11.3579
肥	-11.358
ぃ	-11.3584
鼓	-11.3584
求	-11.368
供	-11.3917
蘭	-11.3926
愚	-11.3927
笠	-11.3928
呂	-11.3928
惚	-11.3928
銃	-11.3929
翼	-11.3929
巣	-11.3929
羅	-11.393
縛	-11.393
渋	-11.393
康	-11.3931
篤	-11.3931
辻	-11.3932
唐	-11.3932
哀	-11.3933
粛	-11.394
抑	-11.4018
亀	-11.4275
盆	-11.4279
晃	-11.4281
剃	-11.4283
維	-11.4285
凡	-11.4285
α	-11.4285
軟	-11.4286
軒	-11.4287
葛	-11.4287
朋	-11.4287
阻	-11.4288
剰	-11.4288
庄	-11.4288
堺	-11.4288
識	-11.4652
献	-11.4652
駐	-11.4652
帽	-11.4653
逝	-11.4655
瓶	-11.4656
剥	-11.4657
培	-11.4657
俗	-11.4657
哉	-11.4657
▼	-11.4659
盾	-11.4663
忘	-11.483
◯	-11.4926
濱	-11.5022
瞳	-11.5033
鈴	-11.5039
巧	-11.504
股	-11.5041
征	-11.5041
衝	-11.5041
糸	-11.5042
腫	-11.5042
–	-11.5043
緩	-11.5043
芳	-11.5043
尿	-11.5044
箇	-11.5045
帆	-11.5046
責	-11.5439
訓	-11.544
懐	-11.5441
芽	-11.5441
◇	-11.5441
械	-11.5442
需	-11.5442
討	-11.5443
朴	-11.5444
鬱	-11.5446
憑	-11.5446
磯	-11.5448
簡	-11.5852
己	-11.5854
倫	-11.5855
墨	-11.5855
挿	-11.5856
檀	-11.5856
斎	-11.5857
窪	-11.5857
錯	-11.5858
悶	-11.5858
稀	-11.5858
謡	-11.5859
洞	-11.5863
萌	-11.6227
駆	-11.6276
厄	-11.6286
乙	-11.6288
潔	-11.6288
弥	-11.6289
紐	-11.6292
嬢	-11.6292
凌	-11.6292
梶	-11.6293
賊	-11.6293
━	-11.6294
丘	-11.6295
邉	-11.6295
六	-11.6295
柱	-11.6296
嘉	-11.6296
蓋	-11.6297
硬	-11.6299
煮	-11.6299
翻	-11.6742
汰	-11.6743
弄	-11.6743
慈	-11.6745
均	-11.6745
畳	-11.6745
艦	-11.6746
傍	-11.6747
淵	-11.6747
沖	-11.6747
胞	-11.6748
旋	-11.6749
洒	-11.6749
詐	-11.675
絢	-11.675
鎌	-11.6751
爪	-11.6752
峯	-11.6755
顕	-11.6757
甥	-11.7218
慢	-11.7221
砕	-11.7221
嗣	-11.7222
貝	-11.7223
麹	-11.7224
♂	-11.7224
准	-11.7224
云	-11.7225
酎	-11.7226
晋	-11.7227
頬	-11.7227
狼	-11.7227
ヲ	-11.7228
渓	-11.7703
岳	-11.7712
係	-11.772
廷	-11.7722
麺	-11.7722
栃	-11.7723
聡	-11.7723
喋	-11.7724
昧	-11.7724
搬	-11.7724
∀	-11.7725
穫	-11.7726
戯	-11.7726
塞	-11.7727
囲	-11.7727
針	-11.8242
胃	-11.8245
狩	-11.8246
疎	-11.8247
衰	-11.8247
苗	-11.8248
鉱	-11.8248
桐	-11.8248
△	-11.8249
謀	-11.8249
暦	-11.8249
殖	-11.8249
曹	-11.825
垢	-11.825
刷	-11.825
召	-11.825
駄	-11.825
覗	-11.8251
勅	-11.8251
幽	-11.8251
巳	-11.8252
▽	-11.8252
祥	-11.8252
琴	-11.8253
丹	-11.8256
蜜	-11.8258
僧	-11.8801
枕	-11.8804
尖	-11.8804
煽	-11.8804
媒	-11.8805
匡	-11.8805
摩	-11.8805
叱	-11.8806
萩	-11.8806
請	-11.8807
暫	-11.8807
卑	-11.8809
璃	-11.8809
罵	-11.8809
ぅ	-11.8811
卿	-11.8812
靖	-11.9389
奔	-11.9391
袖	-11.9391
晶	-11.9393
僅	-11.9393
緊	-11.9393
棟	-11.9393
滴	-11.9394
賜	-11.9394
究	-11.9394
•	-11.9395
批	-11.9396
遮	-11.9397
棚	-11.9397
懲	-12.0013
架	-12.0015
辰	-12.0017
鎖	-12.0017
釘	-12.0017
縄	-12.0017
拒	-12.0019
≪	-12.0019
鹿	-12.002
♡	-12.0021
机	-12.0022
呆	-12.0278
又	-12.0677
歪	-12.0679
厨	-12.0681
叙	-12.0683
蛇	-12.0683
看	-12.0683
泌	-12.0684
曙	-12.0684
憤	-12.0685
≫	-12.0685
槌	-12.0686
孤	-12.0686
筒	-12.0686
拘	-12.0687
聯	-12.0687
粗	-12.0687
瑛	-12.0688
苺	-12.0688
旦	-12.0689
罠	-12.0691
鯨	-12.0692
蜂	-12.0696
凹	-12.1392
餌	-12.1394
凛	-12.1396
悦	-12.1397
韻	-12.1397
邸	-12.1398
緻	-12.1399
‐	-12.1399
洲	-12.14
這	-12.14
羊	-12.1401
凱	-12.1401
巷	-12.1401
〒	-12.1401
淫	-12.1401
漁	-12.1402
癌	-12.1402
梢	-12.1402
漆	-12.1403
筈	-12.1406
蝶	-12.1407
窟	-12.1407
凸	-12.2161
輩	-12.2162
喉	-12.2166
漫	-12.2168
倖	-12.2169
郭	-12.2169
牙	-12.217
~	-12.217
μ	-12.217
灰	-12.217
嗜	-12.2171
玩	-12.2171
′	-12.2171
髭	-12.2171
恭	-12.2172
《	-12.2172
芯	-12.2172
》	-12.2172
藍	-12.2173
縫	-12.2173
綱	-12.2174
蔑	-12.2176
鞄	-12.2177
掃	-12.2179
詰	-12.2356
努	-12.2985
姪	-12.2989
喰	-12.3001
窮	-12.3002
敦	-12.3003
祷	-12.3003
宜	-12.3003
渥	-12.3004
隼	-12.3004
醤	-12.3004
胡	-12.3007
丼	-12.3009
絹	-12.3903
疫	-12.3908
湖	-12.3909
鳩	-12.391
稽	-12.391
鮫	-12.3911
臼	-12.3911
呑	-12.3911
刈	-12.3911
擬	-12.3911
蝕	-12.3912
┌	-12.3913
鎮	-12.3913
朱	-12.3913
坪	-12.3913
膣	-12.3915
麦	-12.3916
盲	-12.3916
蝉	-12.4901
媚	-12.4901
阪	-12.4902
佇	-12.4903
琢	-12.4904
宙	-12.4906
罫	-12.4907
塊	-12.4908
肘	-12.491
飢	-12.491
ぢ	-12.4911
塵	-12.4911
陳	-12.4912
梓	-12.4912
姓	-12.4912
勲	-12.4914
胴	-12.4914
纏	-12.4914
虎	-12.4915
虹	-12.4915
班	-12.4915
只	-12.4917
枯	-12.4918
迎	-12.5832
嗅	-12.6001
荘	-12.6015
升	-12.6016
捻	-12.6017
綿	-12.6018
掟	-12.602
枡	-12.602
尺	-12.6022
郁	-12.6022
甦	-12.6024
掌	-12.6024
賦	-12.6024
∵	-12.6024
滋	-12.6024
笹	-12.6025
←	-12.6025
鳳	-12.6027
寅	-12.6027
桂	-12.6028
渚	-12.6028
頷	-12.6029
鐘	-12.6029
芦	-12.603
俵	-12.6031
靭	-12.7259
肺	-12.726
畜	-12.7264
瑞	-12.7265
灘	-12.7268
猟	-12.7269
昆	-12.7271
頑	-12.7271
爵	-12.7272
↑	-12.7272
沫	-12.7272
糧	-12.7273
醜	-12.7273
자	-12.7274
스	-12.7274
┐	-12.7274
ヽ	-12.7274
楢	-12.7274
莉	-12.7275
酢	-12.7275
扶	-12.7275
遜	-12.7275
朽	-12.7279
廻	-12.7281
湾	-12.8587
乞	-12.8684
企	-12.8699
ぉ	-12.8702
國	-12.8702
冨	-12.8702
択	-13.0354
摘	-13.036
廊	-13.0361
詳	-13.0362
鷹	-13.0364
悟	-13.0368
堕	-13.0368
詠	-13.037
錦	-13.0374
貢	-13.2363
寧	-13.2364
茉	-13.2366
紹	-13.2367
裟	-13.2369
勉	-13.2371
鎧	-13.2374
睡	-13.2382
鍛	-13.4714
隈	-13.4866
愕	-13.4869
ヱ	-13.4869
控	-13.8013
唯	-13.8197
普	-13.8201
是	-13.8203
獄	-13.8219
諦	-14.302
忌	-14.3182
誕	-14.3192
贅	-14.3197
崖	-14.3204
礎	-14.3221
剖	-15.2849
傲	-15.285
倣	-15.2851
駕	-15.2852
餓	-15.2853
遍	-15.2854
萬	-15.2855
萎	-15.2856
茜	-15.2857
舐	-15.2858
紆	-15.2859
竪	-15.286
焉	-15.2861
溺	-15.2862
涛	-15.2863
拗	-15.2864
嶽	-15.2865
峙	-15.2866
堵	-15.2867
凰	-15.2868
凋	-15.2869
̅	-15.287
頸	-15.2871
諜	-15.2872
訝	-15.2873
荻	-15.2874
苛	-15.2875
碁	-15.2876
椋	-15.2877
柚	-15.2878
奢	-15.2879
冴	-15.288
亭	-15.2881
餐	-15.2882
雁	-15.2883
逞	-15.2884
諾	-15.2885
薔	-15.2886
薇	-15.2887
穀	-15.2888
磐	-15.2889
瞭	-15.289
猶	-15.2891
瀕	-15.2892
汎	-15.2893
曝	-15.2894
旺	-15.2895
戚	-15.2896
嬌	-15.2897
嘲	-15.2898
函	-15.2899
冥	-15.29
丑	-15.2901
゙	-15.2902
馳	-15.2903
陛	-15.2904
醐	-15.2905
醍	-15.2906
躊	-15.2907
躇	-15.2908
腺	-15.2909
脆	-15.291
糾	-15.2911
甫	-15.2912
滲	-15.2913
渾	-15.2914
榮	-15.2915
挽	-15.2916
恫	-15.2917
庶	-15.2918
媛	-15.2919
墜	-15.292
叔	-15.2921
伎	-15.2922
頓	-15.2923
踪	-15.2924
綻	-15.2925
窺	-15.2926
湘	-15.2927
慨	-15.2928
惧	-15.2929
姦	-15.293
壌	-15.2931
唖	-15.2932
匿	-15.2933
阜	-15.2934
鉛	-15.2935
遽	-15.2936
栽	-15.2937
慧	-15.2938
循	-15.2939
彿	-15.294
墟	-15.2941
轟	-15.2942
豹	-15.2943
芥	-15.2944
椿	-15.2945
揉	-15.2946
忽	-15.2947
彷	-15.2948
娯	-15.2949
冑	-15.295
ゞ	-15.2951
顛	-15.2952
遷	-15.2953
赦	-15.2954
煩	-15.2955
椅	-15.2956
斐	-15.2957
喚	-15.2958
鹸	-15.2959
酬	-15.296
辣	-15.2961
赴	-15.2962
讃	-15.2963
曰	-15.2964
姜	-15.2965
吊	-15.2966
隅	-15.2967
筐	-15.2968
汐	-15.2969
楚	-15.297
囚	-15.2971
俸	-15.2972
侶	-15.2973
郊	-15.2974
炸	-15.2975
捏	-15.2976
悼	-15.2977
逢	-15.2978
蜷	-15.2979
紡	-15.298
稚	-15.2981
潟	-15.2982
措	-15.2983
宰	-15.2984
倶	-15.2985
些	-15.2986
餃	-15.2987
薦	-15.2988
茨	-15.2989
漬	-15.299
湧	-15.2991
挟	-15.2992
勃	-15.2993
烏	-15.2994
謳	-15.2995
涌	-15.2996
槻	-15.2997
勿	-15.2998
矛	-15.2999
牽	-15.3
欺	-15.3001
扮	-15.3002
喪	-15.3003
唆	-15.3004
酵	-15.3005
拐	-15.3006
儲	-15.3007
鈍	-15.3008
耗	-15.3009
簿	-15.301
捧	-15.3011
抹	-15.3012
軌	-15.3013
虜	-15.3014
揶	-15.3015
揄	-15.3016
愉	-15.3017
騙	-15.3018
陶	-15.3019
箋	-15.302
ヂ	-15.3021
賭	-15.3022
讐	-15.3023
肯	-15.3024
憐	-15.3025
采	-15.3026
匂	-15.3027
預	-15.3028
醒	-15.3029
羨	-15.303
瑠	-15.3031
暢	-15.3032
晦	-15.3033
扇	-15.3034
恨	-15.3035
妨	-15.3036
牲	-15.3037
嘩	-15.3038
梱	-15.3039
敢	-15.304
犠	-15.3041
晒	-15.3042
嫉	-15.3043
姐	-15.3044
漂	-15.3045
洪	-15.3046
喧	-15.3047
舫	-15.3048
撤	-15.3049
賠	-15.305
膚	-15.3051
猪	-15.3052
殴	-15.3053
擢	-15.3054
岐	-15.3055
辱	-15.3056
賑	-15.3057
゚	-15.3058
膨	-15.3059
肢	-15.306
櫻	-15.3061
怠	-15.3062
偶	-15.3063
訣	-15.3064
仰	-15.3065
訟	-15.3066
盟	-15.3067
詫	-15.3068
眞	-15.3069
噴	-15.307
脅	-15.3071
輸	-15.3072
濡	-15.3073
据	-15.3074
把	-15.3075
慰	-15.3076
幌	-15.3077
賃	-15.3078
撲	-15.3079
噌	-15.308
來	-15.3081
慌	-15.3082
冗	-15.3083
́	-15.3084
渉	-15.3085
惜	-15.3086
乏	-15.3087
飽	-15.3088
該	-15.3089
繊	-15.309
埼	-15.3091
双	-15.3092
絞	-15.3093
僚	-15.3094
励	-15.3095
抵	-15.3096
妥	-15.3097
嘆	-15.3098
偵	-15.3099
伺	-15.31
肪	-15.3101
遭	-15.3102
埋	-15.3103
劣	-15.3104
痩	-15.3105
漏	-15.3106
浸	-15.3107
呟	-15.3108
頻	-15.3109
誉	-15.311
跳	-15.3111
騎	-15.3112
雇	-15.3113
貌	-15.3114
濯	-15.3115
覇	-15.3116
綺	-15.3117
褒	-15.3118
累	-15.3119
勧	-15.312
沸	-15.3121
遇	-15.3122
捜	-15.3123
揺	-15.3124
塗	-15.3125
紳	-15.3126
溢	-15.3127
璧	-15.3128
擁	-15.3129
践	-15.313
篠	-15.3131
挨	-15.3132
拶	-15.3133
妄	-15.3134
叩	-15.3135
燥	-15.3136
娠	-15.3137
尋	-15.3138
馴	-15.3139
掴	-15.314
析	-15.3141
貯	-15.3142
浴	-15.3143
綴	-15.3144
呈	-15.3145
浄	-15.3146
悔	-15.3147
忙	-15.3148
貞	-15.3149
趣	-15.315
癒	-15.3151
憧	-15.3152
拠	-15.3153
捨	-15.3154
閲	-15.3155
繋	-15.3156
粧	-15.3157
冒	-15.3158
避	-15.3159
慣	-15.316
逮	-15.3161
壊	-15.3162
候	-15.3163
雰	-15.3164
暮	-15.3165
績	-15.3166
ゅ	-15.3167
午	-15.3168
払	-15.3169
抽	-15.317
誇	-15.3171
揃	-15.3172
疲	-15.3173
険	-15.3174
俳	-15.3175
締	-15.3176
繰	-15.3177
扱	-15.3178
披	-15.3179
途	-15.318
戻	-15.3181
鮮	-15.3182
嬉	-15.3183
般	-15.3184
徴	-15.3185
緯	-15.3185
索	-15.3186
紺	-15.3187
競	-15.3187
舗	-15.3188
契	-15.3189
稿	-15.3189
働	-15.319
騒	-15.3191
及	-15.3192
移	-15.3193
災	-15.3194
執	-15.3195
悩	-15.3196
購	-15.3197
験	-15.3198
募	-15.3199
憩	-15.3199
搭	-15.32
必	-15.3201
較	-15.3202
距	-15.3202
督	-15.3202
設	-15.3203
掲	-15.3204
殊	-15.3204
ォ	-15.3205
ョ	-15.3206
徐	-15.3206
